fc03
09ed
06ff
040f
f20c
0517
f6d8
f803
1e00
e5f5
ff07
0b1b
ec0c
05ff
f806
fa13
f3ff
02f8
01dc
ffef
13e7
0dff
02e6
05f3
09f2
151b
13fe
00ef
fdff
ee02
f9f9
f5d6
dcf2
fdf6
0102
0ddb
0dfc
0af0
14fb
f8fa
f9e5
11fa
12e8
10e5
1c09
0afb
0604
04db
0cf5
f902
12ee
0414
0301
0cf5
fdf3
f3fe
f54e
06ff
f40f
0221
f6f1
08ef
f212
fffc
fb0f
f41e
edf6
ff03
f51d
f9e8
02fd
071b
014e
fde7
0de6
fb40
f3e9
07d5
053f
0514
03e5
be0c
101a
eef6
c51f
13fe
fffb
030d
f105
f805
f8f9
01f0
d7ca
efe2
2005
2827
23fa
fbda
efee
ef0a
e335
1602
e613
fa18
0423
e32a
ffb8
06e7
ea08
c426
f017
0308
fa0e
f704
c2ea
dbdf
e522
e7ef
ecdf
e9ed
ddcd
f737
cdef
06dd
34ea
c7e2
1ce2
17d6
f3f0
cf28
e4e2
e516
bd27
15eb
e918
080c
f614
d8e4
eaf9
07f7
ced1
0bde
fbee
f9b5
ecec
ddec
2412
3bd2
fc03
f011
dd0b
08a3
19ff
88d9
02db
e2d1
e411
cbfd
02de
de1f
f0d6
d518
fc10
0012
08d8
19de
f514
fde8
f5f7
f0d6
30fb
05d5
f20c
f22e
32f2
fedb
f3f1
33fd
fcfa
f216
fd26
04f8
fbea
fbe3
f1fb
f7ed
f200
d4ed
110d
fefd
0dfc
02d8
1bfc
2109
0be3
12ed
0aef
1adf
fdef
07df
14fb
0d13
ea26
04e6
10ec
ddce
021d
fe09
1efb
eef8
f1fd
f00a
0004
21db
cac0
250f
00f9
1102
0bd0
fdea
07fd
1332
09f1
fa03
030e
05e4
0143
eff4
f9ff
f6cd
fe0a
f7d5
f3f5
fb09
f9f7
1a28
fae6
05e7
0bf3
1018
04e2
e4f5
0233
0000
0000
0000
0000
0000
0000
0000
0000
0000
0000
0000
0000
0000
