f8f9
01f5
f914
e8fc
d7fe
cb10
d6f7
d8f6
b21a
bbec
f8d3
1fd6
13db
08f5
1ee2
120c
0301
15fc
f033
dd08
fae5
0102
f407
0b05
14f1
13fe
fd29
f532
06e5
089f
f802
01eb
e105
01d2
02f4
0119
e7f8
0800
1c12
25c3
0dfc
1f06
05eb
08ff
ea10
1737
f106
05eb
1420
fce0
0afc
fa02
00f7
071b
4606
fc10
f522
08fc
f308
fb09
ec07
ecf1
e2f0
ece7
24e2
0102
ebfc
1808
1d02
e514
d519
c61b
152a
e0e6
0bf6
e422
f308
10f4
b816
e109
d121
facc
ebd9
0cfa
2f30
1f20
013b
19e7
e5e1
d9e0
df7c
0f1c
19e9
f409
090b
dfe1
f416
fa06
fd0c
e3ff
e5de
e4e1
561c
1b14
110e
31db
00ea
1908
e6eb
e5f6
c8ea
0c0a
ec25
e7d0
ec0f
0ffb
4bfe
e521
0347
19f8
0921
0df8
db13
fdf6
2e10
dbf0
b8eb
fb0d
c91b
0219
1bf2
0216
f9ea
f213
f1e1
c6ed
b4e2
e318
0df1
ee06
f62d
f9ec
d5df
d6e1
03e7
e8f5
eafc
edfa
da1e
0509
e793
f00a
fbcd
e0d2
e8fc
d807
17dd
1bf6
462c
1fbd
0d0c
fa1f
072b
3f44
3212
ea04
fa2b
1429
f2e4
e1fc
e91d
2e10
f5e1
cde3
04ef
e0ee
061b
03e6
1400
0dfd
0831
0209
2f0f
0020
ebf4
1107
e90a
0fed
2614
1c1f
c6f9
ec1f
fff2
05e0
1cec
08d4
e4d4
e5da
09d8
e8d8
c605
dcd4
dee9
05ed
ffe6
fff0
26ec
e5ee
c6f0
e4f8
00f6
f8d1
fbf8
56f9
17e8
35ed
fe07
06d6
f7e6
001b
02fd
f7fe
0d38
020a
ec23
0ef5
0bf5
fcfa
0f01
092c
0606
1800
e822
002a
08fe
272f
402a
0e3d
edee
2419
1ffc
ffe3
0307
0000
0000
0000
0000
0000
0000
0000
0000
0000
0000
0000
0000
0000
