fbfe
140c
091d
05fe
0512
f506
ebfa
fcff
fe04
f1ee
ef2b
f804
fef1
fde6
ff0a
02e1
defe
f809
f8f7
f902
0bf8
f7f4
f6fc
efee
fa03
f7ea
f4f0
ebf5
01f1
f0e3
06e9
f3fc
00ee
e200
f40b
060e
ff01
01e6
01ee
f1d2
181e
fa00
f9ff
eee9
f8fb
0508
f31f
fd16
fb10
0424
1d0a
fb0a
0afc
0ffd
0102
eff9
03e3
faee
03f1
e2ec
fcef
fae0
f5f0
0af0
fbf4
e6f1
e712
fdf0
def8
11f2
fc02
f7ea
ef05
0a22
0907
00fd
01f8
16f2
0401
0beb
03f8
fff2
fef8
fe07
02f1
fd0c
01ff
02fc
fff7
fffd
010a
0504
0705
01fd
08e8
000d
0103
04fe
05f9
0102
0200
fd00
0206
0104
010a
01f1
02e2
fff5
0705
05ed
03ef
050c
0101
03f8
01fe
0005
fdfa
02f6
02f8
03e8
02f8
03fa
02ef
0200
03e9
03f4
fe0b
0001
00fc
ffff
0200
0406
fbfd
0202
04fd
01f4
03f1
0202
0206
03ec
00fd
0100
01fd
01f9
04ed
01fb
03d5
0601
06e9
fff8
0604
04f6
04e5
fef4
00f5
03ef
fff4
00fa
00f0
fd01
03f9
0207
f5f9
2402
f00e
f506
f800
e115
f20f
05fa
0505
13fd
02f4
f007
f2ef
06ea
f704
0cf4
12eb
eef6
0207
fd03
eb00
f911
e202
ee03
ff0e
0b00
fc0d
0600
ddf7
07e3
fd04
05fa
fe01
faf8
eaf7
fe09
0a0d
e203
dc06
0405
f7fa
fe02
f3ff
0704
0a0b
0207
f8fc
0407
db09
0201
0109
e4f9
f8fe
0ffd
0cff
e9f3
fa0a
0910
02f5
ed0b
0803
e9f8
ef09
010c
ec05
ef0d
f00a
e910
e105
e3fb
f912
100a
030e
fc01
0c06
ff0c
1802
fd00
080c
ed0f
08fa
0000
0000
0000
0000
0000
0000
0000
0000
0000
0000
0000
0000
0000
