f00e
070b
0618
02f6
0e28
e8dc
1906
f807
04ed
0c1a
fa13
02e1
f4da
ff19
edf3
012f
090c
08cc
fdee
e70d
ef13
f00d
e635
f618
0e14
e6e5
ebfc
08ef
0517
0210
0bef
fe1b
faf9
e01b
e31e
f70b
3517
d321
19dc
d03a
e6ef
d2fa
df2d
1f12
030b
05e9
dbe5
05cc
f005
d3ff
5efd
2004
fae2
15db
7bd4
08a6
bce5
3c10
c5f4
d90a
7d7f
b7b7
27fd
dce7
0422
0e1e
f4bb
c8ba
0b6c
4b3f
1e41
dff7
ecd6
ff1e
df0f
072a
31cf
e827
ed0c
082f
1402
de22
12f6
0cfa
fb17
e401
e512
f624
0701
e62a
17ee
f5f5
fd05
2a09
fc1e
bd18
29e2
1dfd
e60c
1a09
0aef
e6e4
07db
f116
ff1e
2d16
0502
e9fd
0000
0000
0000
0000
0000
0000
0000
0000
0000
0000
0000
0000
0000
0000
0000
0000
0000
0000
0000
0000
0000
0000
0000
0000
0000
0000
0000
0000
0000
0000
0000
0000
0000
0000
0000
0000
0000
0000
0000
0000
0000
0000
0000
0000
0000
0000
0000
0000
0000
0000
0000
0000
0000
0000
0000
0000
0000
0000
0000
0000
0000
0000
0000
0000
0000
0000
0000
0000
0000
0000
0000
0000
0000
0000
0000
0000
0000
0000
0000
0000
0000
0000
0000
0000
0000
0000
0000
0000
0000
0000
0000
0000
0000
0000
0000
0000
0000
0000
0000
0000
0000
0000
0000
0000
0000
0000
0000
0000
0000
0000
0000
0000
0000
0000
0000
0000
0000
0000
0000
0000
0000
0000
0000
0000
0000
0000
0000
0000
0000
0000
0000
0000
0000
0000
0000
0000
0000
0000
0000
0000
0000
0000
0000
0000
0000
0000
0000
0000
