eef2
09d2
07ca
eef3
fe1a
0705
f1ed
f1ce
2cd6
e70b
f404
18fa
e0d5
eafa
11d2
dad6
d6fa
12c7
e9f8
da13
ceef
fdf5
f8fe
fdfe
f7cc
eae6
e3ea
0efe
f7e8
faef
fc28
f30d
ef18
fe32
e505
070a
0b18
3602
47e3
f5ef
172b
da0c
eebe
f1e6
fedb
f009
d30f
cee1
ec5b
fc0d
fde6
18e9
13e0
efef
0ffd
0bfc
0021
15fc
f2ff
f704
0903
e115
e5f7
e101
f3d5
f5f1
e50f
da07
dcde
d9fc
a727
e7ef
d203
e909
f818
fe7f
080a
f8f7
07d8
00fc
e80c
ecf0
f9f1
0a06
f015
fd08
130d
0f0a
0f03
3807
e30a
eae1
e706
f4fd
f5fa
f309
0bfd
f918
e70f
14d3
2ff2
30ee
0f18
36a2
16c8
1fea
0129
e928
eeef
f807
f205
f6ea
06ed
e9fa
f407
f101
f900
dc11
e502
e725
00f3
f8ed
d905
0f0e
0e16
0e10
11c3
0c05
1ff2
1501
22ff
21e1
07ff
12e5
fded
34dd
0610
1ce6
fdd8
13ce
20ef
0ad2
1cc4
0fe9
c6f6
cb16
bf1d
bc1d
f123
09fb
9b2c
dbe1
e6ed
e910
f51a
e8f5
0108
f1f5
f9e0
e54b
f2f9
e4d8
ea05
ebd8
fee4
fd22
e0f5
1d09
e3fe
f9fd
0e05
0ee1
ea16
e61c
0bf8
0fe8
04fc
f413
ceee
ee10
14c9
15ef
090a
1ed2
0901
4216
14ef
12ee
f5fe
fd01
eedc
facd
0cf8
21fb
ec07
13fc
f3f7
c112
0bec
f30c
0904
00e6
f102
02fe
e3fd
0006
06eb
060d
fb17
07f9
fc02
2216
ffd0
fd1a
3002
2af2
0000
0000
0000
0000
0000
0000
0000
0000
0000
0000
0000
0000
0000
0000
0000
0000
0000
0000
0000
0000
0000
0000
0000
0000
0000
0000
0000
0000
0000
0000
0000
0000
0000
0000
0000
0000
0000
0000
0000
0000
