0527
1112
25a7
0b62
f708
15d2
0445
13e9
22ea
d3fa
42db
c817
1828
44da
e516
c8f0
12e3
fe83
e201
e2da
f0ec
c114
b5fc
d135
fff1
cbc6
de5e
0455
f306
1226
fa0a
fa44
f326
55e6
e41a
fd99
1f0b
fb07
e90a
2e0b
d60b
eef9
021a
0305
0a0d
e5fb
fbfe
07e0
2a0e
05e0
3bf8
faf8
dfeb
10d9
221b
17f5
360e
0ff9
0df9
0d05
f3fe
f500
07d5
e915
be0d
fef5
0904
af06
1aea
15fb
cafb
f4ff
16dc
f9f1
eccf
0224
e81e
19bb
0d17
c324
d73d
2bb9
fcae
1b0b
2ae4
fbe3
f106
0b2e
091c
da2e
1004
0522
423f
0f29
265b
18f4
2cd6
22a1
f0ee
f8b7
29c8
0d3e
49eb
c3d9
0ed7
db3d
ed17
07fa
0000
0000
0000
0000
0000
0000
0000
0000
0000
0000
0000
0000
0000
0000
0000
0000
0000
0000
0000
0000
0000
0000
0000
0000
0000
0000
0000
0000
0000
0000
0000
0000
0000
0000
0000
0000
0000
0000
0000
0000
0000
0000
0000
0000
0000
0000
0000
0000
0000
0000
0000
0000
0000
0000
0000
0000
0000
0000
0000
0000
0000
0000
0000
0000
0000
0000
0000
0000
0000
0000
0000
0000
0000
0000
0000
0000
0000
0000
0000
0000
0000
0000
0000
0000
0000
0000
0000
0000
0000
0000
0000
0000
0000
0000
0000
0000
0000
0000
0000
0000
0000
0000
0000
0000
0000
0000
0000
0000
0000
0000
0000
0000
0000
0000
0000
0000
0000
0000
0000
0000
0000
0000
0000
0000
0000
0000
0000
0000
0000
0000
0000
0000
0000
0000
0000
0000
0000
0000
0000
0000
0000
0000
0000
0000
0000
0000
0000
0000
