7f
dd
22
38
de
1a
d5
12
fc
07
31
51
ea
d4
d4
eb
30
f4
e3
c3
c3
c2
d1
56
fa
d7
e6
45
d3
5e
60
ee
fd
1a
e1
de
00
30
d3
f2
cc
ee
5d
b6
ec
ee
46
d8
ef
2e
43
e3
26
4b
dd
d0
01
30
b6
ff
ee
26
e2
ef
2f
fc
f0
66
36
e1
36
eb
ea
d8
57
43
5e
f3
f0
13
08
de
1e
e8
1c
fa
dd
c3
d9
e8
51
0b
ea
41
cf
52
f3
c7
f2
20
e8
f3
ef
cf
5d
c1
18
dd
2a
2b
0d
c6
cb
d0
da
d2
58
33
d6
01
00
00
00
00
00
00
00
00
00
00
00
00
00
00
00
00
00
00
00
00
00
00
00
00
00
00
00
00
00
00
00
00
00
00
00
00
00
00
00
00
00
00
00
00
00
00
00
00
00
00
00
00
00
00
00
00
00
00
00
00
00
00
00
00
00
00
00
00
00
00
00
00
00
00
00
00
00
00
00
00
00
00
00
00
00
00
00
00
00
00
00
00
00
00
00
00
00
00
00
00
00
00
00
00
00
00
00
00
00
00
00
00
00
00
00
00
00
00
00
00
00
00
00
00
00
00
00
00
00
00
00
00
00
00
00
00
