0bb8
23af
1d95
1ee5
ef08
c800
5015
3b0c
2830
262f
2a42
1031
d41f
0621
0514
3502
0ffe
1805
c3e1
fbf2
12fe
f8cc
f9c8
1e0f
e0eb
ddee
f3dc
ef0b
eae6
f6b8
3401
ffd7
c8fc
cef3
e5d6
2c0d
e648
dcd4
e32e
ec12
e0eb
f836
d706
e3ff
dfec
f601
00e9
2203
fef7
2af2
1813
1119
f91b
d209
1a2b
eb2e
0016
de20
f2e6
fd09
2bec
06e7
1502
27f7
35ed
0fec
330a
fe09
0005
013a
0f19
0f1f
fe0a
e715
380a
121c
ecff
ea15
15f9
0b07
1232
c9d4
bfd6
d6a2
f003
e8e0
02ce
e6ff
bdda
baef
d409
cae6
d3cf
180b
22fd
1dff
fb12
eb0e
03fe
05cc
fff9
f0ec
1ad4
26f9
edee
ffe1
3bb4
29e5
18f5
eef0
efd1
ee02
de0a
1de1
06ea
0ff9
f6e6
00f0
e103
e919
19fc
1407
0bef
0bd2
1911
f1f2
d8e3
04ee
dffd
29e4
1c11
1323
1603
0217
1001
c610
f92b
edfc
f7f5
f5fe
170e
21fa
eb19
fe30
eced
02f9
dbf4
0ee5
09ef
f9d4
17e0
0af4
e4d7
e612
e6fe
d80b
f701
0713
eb1f
cc24
9e1e
abe1
ee20
7ff4
32d7
15f6
0504
fd09
edf5
d315
ba16
2df6
da20
e70d
07f0
e9e5
07e5
d420
d400
c804
e6cc
03ce
eaf9
0ebc
2186
f305
00c3
28c9
0bb5
dbf0
da0a
16ef
0ef6
c3fd
e0e5
e603
f51e
daf6
faeb
0ce6
08b4
24d6
2bf6
f4f7
1e8d
18d9
14c1
06e5
0900
b83e
f3ff
3a04
f0f5
ba10
d30a
0c02
f6f4
dd18
3313
f1f0
f9e1
00f8
b914
f00f
c82e
0620
2e13
3cf3
1ccb
0af3
f6fb
fde0
ef0d
f40f
f919
f71d
de1e
e907
d326
10ea
d614
da15
c803
0000
0000
0000
0000
0000
0000
0000
0000
0000
0000
0000
0000
0000
