f8
4d
47
f9
df
f6
fe
33
48
2a
59
29
c4
52
41
c7
e6
ec
c3
e5
e3
e9
ce
b6
e8
af
cc
de
e6
2b
18
6b
db
2e
35
e9
e4
be
ce
e6
c5
31
32
ea
48
c2
fb
c9
62
19
de
33
ef
d1
cb
49
b6
dd
fc
ff
fd
02
e5
d0
7f
28
eb
fd
37
cd
f1
2f
65
46
47
d5
33
36
f9
fb
13
30
c0
20
ec
fb
0d
f5
11
bc
30
dd
c8
d7
5e
c7
f1
de
2e
66
0a
48
14
e3
05
16
f7
22
17
09
d4
25
da
c6
30
d3
c6
bc
0c
4c
00
00
00
00
00
00
00
00
00
00
00
00
00
00
00
00
00
00
00
00
00
00
00
00
00
00
00
00
00
00
00
00
00
00
00
00
00
00
00
00
00
00
00
00
00
00
00
00
00
00
00
00
00
00
00
00
00
00
00
00
00
00
00
00
00
00
00
00
00
00
00
00
00
00
00
00
00
00
00
00
00
00
00
00
00
00
00
00
00
00
00
00
00
00
00
00
00
00
00
00
00
00
00
00
00
00
00
00
00
00
00
00
00
00
00
00
00
00
00
00
00
00
00
00
00
00
00
00
00
00
00
00
00
00
00
00
