c8
2d
43
ff
4b
e0
08
19
a3
a6
31
44
ba
a7
e9
cb
16
f8
9f
5a
3a
2f
c8
f6
21
1c
fc
cc
21
1b
e5
bf
ae
20
14
2d
fd
2c
05
33
cb
2b
e0
df
df
bc
d1
09
f9
4e
63
56
23
12
af
18
f9
1c
dc
21
03
55
fd
f7
eb
3a
01
58
c7
0b
fa
43
bd
07
41
0e
e4
b9
de
f7
f4
2c
67
27
06
2b
f6
f9
dd
7f
c8
2b
e9
fb
0b
bf
a8
17
18
50
cc
dd
fd
dc
e3
06
18
4e
09
6c
53
29
11
04
01
0f
23
f0
fa
0d
00
00
00
00
00
00
00
00
00
00
00
00
00
00
00
00
00
00
00
00
00
00
00
00
00
00
00
00
00
00
00
00
00
00
00
00
00
00
00
00
00
00
00
00
00
00
00
00
00
00
00
00
00
00
00
00
00
00
00
00
00
00
00
00
00
00
00
00
00
00
00
00
00
00
00
00
00
00
00
00
00
00
00
00
00
00
00
00
00
00
00
00
00
00
00
00
00
00
00
00
00
00
00
00
00
00
00
00
00
00
00
00
00
00
00
00
00
00
00
00
00
00
00
00
00
00
00
00
00
00
00
00
00
00
00
00
