34
0e
04
0b
f5
13
40
1a
08
f8
ea
f3
fb
0f
0a
0e
04
10
05
0b
f6
ed
f8
0b
f2
1d
f2
09
01
e5
04
15
16
f5
f0
cb
22
dd
f3
0f
17
fc
e6
d9
d4
0d
f5
2d
0a
1f
0f
12
11
09
d2
02
fc
ff
f1
ec
eb
13
06
fb
06
0a
05
fa
dc
f4
15
04
1a
2e
09
fb
01
eb
c8
f3
cd
06
0c
cc
27
0e
ed
10
eb
19
f8
00
10
eb
f9
fe
e6
fb
16
16
e9
11
0f
ea
0d
21
36
24
13
cc
f1
f5
f3
d6
fb
1c
cd
d9
1e
1e
f0
ec
05
08
1a
1a
00
d4
f1
dd
ee
f5
13
da
e5
11
e4
0c
06
fa
14
e3
dd
e0
f5
14
fe
f8
f7
04
f4
f2
0a
33
11
32
1c
0e
f2
dc
fd
0c
f1
03
d8
08
e5
c6
f2
03
1a
eb
16
dd
f8
1c
ff
3e
13
26
f2
e4
0a
cd
dc
f3
d6
c7
03
10
15
16
0c
33
0d
0b
29
f0
33
06
f2
21
0c
07
1e
37
21
c3
f8
fa
ee
c3
d7
03
e2
f4
d7
20
08
25
11
4a
11
f9
35
1c
f2
ed
1b
1b
f5
01
f6
d7
ec
fe
0e
d8
d6
dd
ef
cf
e2
18
0d
e9
ed
e5
f0
d9
e7
0c
09
24
ef
07
f7
22
e4
e8
fd
f2
2f
68
f9
02
ff
05
ee
01
fa
dd
df
ec
f0
f1
ed
cb
f2
fe
0f
bb
fe
24
3c
fe
fa
0b
fa
0f
dd
0b
fd
06
e6
e6
f3
ea
0a
04
ee
f9
ef
e3
f2
0f
f6
05
d3
0c
07
02
54
13
fd
c0
d7
f4
2d
15
0e
09
d0
f7
ef
fa
f7
11
fc
f0
f3
fa
e8
2c
1a
0f
f6
1f
19
1d
0b
0a
fe
b1
fb
cb
f5
06
e3
d2
b3
36
dc
3c
0c
f5
ff
04
c1
ef
07
20
19
21
26
36
fc
01
f0
e9
ec
1d
d3
14
d4
0a
e3
a4
18
24
da
3c
1c
e8
da
e7
e0
03
1a
d6
e0
21
f4
04
25
fd
d6
96
dd
c1
d5
07
d7
07
c3
80
03
e5
d4
26
ea
23
24
18
12
ff
d6
ce
ee
f3
e5
08
1d
19
39
01
fa
fb
c8
1c
00
ed
ec
23
42
d5
e7
25
34
de
f7
e1
fd
36
f3
fb
05
e2
d0
f7
14
16
d9
19
fc
f4
0b
02
1b
df
fa
f9
de
f1
05
c9
e7
ec
fd
dd
f2
00
c5
e1
f2
f6
0e
1f
4b
ee
f9
d7
0e
04
de
01
2e
f8
2a
00
44
0a
0e
00
f9
03
fd
3c
e9
f0
17
dd
14
21
0d
b9
ca
e5
ed
fb
13
f6
f7
fa
dd
dd
00
c1
ef
de
0d
e6
f2
04
f0
f1
de
d1
07
b8
03
f9
0e
04
f1
de
17
f9
01
12
be
ed
fb
d3
f6
cb
fe
36
01
d5
ec
e8
d7
f7
01
f3
b4
d2
23
1b
dd
0b
e7
f4
f7
b0
ea
ba
0d
f6
be
1d
04
b2
f4
f1
18
17
13
12
f7
ec
39
f8
0c
fe
05
07
08
11
1e
e7
dc
0c
04
29
1d
cb
e2
04
16
13
0c
fc
09
e9
3a
37
b3
23
20
fa
ec
ef
01
e9
e0
15
cb
e3
03
22
10
0f
21
2d
f1
2f
1e
19
ff
52
00
fc
29
ec
1d
12
ec
3f
c0
cc
02
12
fc
1f
11
18
06
e8
dc
0a
0f
00
f4
d2
f7
05
0e
19
02
10
f3
d2
d8
08
03
f1
09
db
0f
07
16
0b
04
1d
df
1a
11
18
12
04
12
ef
fb
ef
10
f0
0d
14
0a
0f
1e
04
e4
f3
fb
0b
f6
e2
fc
eb
f4
0d
0a
f5
f4
07
fe
e1
e5
01
e8
05
10
e9
07
0d
ec
f2
f5
fb
05
ff
12
f9
13
0e
02
f1
1b
d0
33
d7
b1
fd
e7
f2
02
1d
14
f3
07
03
25
2a
fc
4b
41
7f
f9
f3
fa
34
2f
5d
10
f4
f0
2d
ec
fa
f2
3d
c2
d2
ef
fb
07
54
62
e8
1b
fc
b1
1c
e4
06
ee
d7
d3
ee
ef
cb
2f
e9
04
31
12
0c
25
f2
6e
3f
7f
25
11
3f
e0
f0
24
fc
26
18
31
1b
ba
d2
2d
11
00
00
00
00
00
00
00
00
00
00
00
00
00
00
00
00
00
00
00
00
00
00
00
00
00
00
00
00
00
00
00
00
00
00
00
00
00
00
00
00
00
00
00
00
00
00
00
00
00
00
00
00
00
00
00
00
00
00
00
00
00
00
00
00
00
00
00
00
00
00
00
00
00
00
00
00
00
00
00
00
00
00
00
00
00
00
00
00
00
00
00
00
00
00
00
00
00
00
00
00
00
00
00
00
00
00
00
00
00
00
00
00
00
00
00
00
00
00
00
00
00
00
00
00
00
00
00
00
00
00
00
00
00
00
00
00
00
00
00
00
00
00
00
00
00
00
00
00
00
00
00
00
00
00
00
00
00
00
00
00
00
00
00
00
00
00
00
00
00
00
00
00
00
00
00
00
00
00
00
00
00
00
00
00
00
00
00
00
00
00
00
00
00
00
00
00
00
00
00
00
00
00
00
00
00
00
00
00
00
00
00
00
00
00
