f90b
13f1
03e3
06fb
02d5
fbef
10f5
01dd
f4de
e801
dc13
fcff
020d
01e9
00ff
1710
1aff
16df
cfe2
0908
01ee
eed1
f1d1
f40f
0001
e832
0427
e93f
df22
f71f
fa05
0ee1
fd17
2321
2a0e
ea14
16f7
14da
f9fa
fbee
05e7
fe10
f407
e408
e90b
3232
0602
0311
08f5
fcf1
0d3a
0a3e
0825
0526
c907
d133
f810
df2c
d928
ebe8
f504
f305
f401
e038
082e
20ec
e94f
00ee
fdfc
fd12
f60f
121d
e0f9
edf6
d50b
0f00
fe30
e6f8
28fe
05e9
06e0
df1c
0438
eb1e
fcf4
14ec
fc09
03e8
10fc
1001
01e0
dcce
eedb
e80f
f4f1
0104
0f14
180c
fd18
0ddc
00f3
0a16
d9cd
98e4
ebf3
f8f9
16f7
4ae5
1bec
10ea
11fa
e917
dfef
0a02
1117
fe04
fa0c
f7ff
eefd
e5fe
190a
0a0b
fc28
f510
e300
ae29
fefc
f4fd
f9e7
eae7
20ee
1beb
eedf
0f02
22ef
cffd
e200
0acd
e2dc
1dff
1ee0
edf3
00e4
2aca
e527
00fb
10f8
08fc
370f
08fb
e600
f316
2b19
09ea
e9d4
e7da
1504
f6fa
18f7
061f
fa25
0f21
f921
0811
cc20
f9ee
0206
00fe
25fb
0fd8
faec
1229
19fe
16df
0bbd
f6de
b6d7
dcd7
dde1
01ee
ef07
e610
f410
e705
cff5
e0fb
f916
ee09
f7f4
2a20
1b21
4533
e901
e103
fff4
10db
0af4
02fd
fe0d
13e2
0ce1
24e4
f3f1
f7f5
daeb
cbe4
e60f
310b
0511
0b12
15d6
b2e1
b4fe
dd06
d3ee
e716
0000
0000
0000
0000
0000
0000
0000
0000
0000
0000
0000
0000
0000
0000
0000
0000
0000
0000
0000
0000
0000
0000
0000
0000
0000
0000
0000
0000
0000
0000
0000
0000
0000
0000
0000
0000
0000
0000
0000
0000
