c40f
0009
feda
10e4
e1f9
b9db
1506
08dd
d6e2
b1d7
d8a8
d7f7
1103
fef8
2429
d505
f0e0
0c00
d3cc
c107
f734
0647
d523
f113
150a
e537
ffe8
2611
f9db
1ee5
f4dc
07c9
ecf8
ecdd
bb2d
37e3
b7e5
eec6
c00e
15ec
2ede
14fc
11ef
f6fb
e50a
d108
0009
f7f1
dc0c
3407
3816
241e
da1d
2bdd
0307
fd28
1a3e
bb43
e2f8
e3ee
150b
3bf8
0313
f1c0
fbe5
d818
0f1f
fee8
0c46
e418
ed81
f2e1
dbf9
fc10
0bfb
df31
0c25
d7f0
1a16
fbf1
d6d4
03ff
fcef
03cd
0dfa
f90b
0df9
014b
04e2
10f1
fdf4
02e3
0ab4
09d5
fe12
1228
fe16
0703
f9ae
fbd3
f140
f702
f4af
f9e5
05da
f1ce
00d9
f009
fef4
f9fa
fa04
060b
fe2e
fe49
0853
fbbc
f8ab
0ad4
eacb
05c5
04ae
fce3
fe1b
ff93
13fe
03e8
f7e6
0201
0a0a
1237
06e5
02f2
10e1
050a
0d14
02dc
fae3
00e5
f501
f7ec
f212
04e7
fd4b
032e
f929
ffe8
edde
f8e8
00fe
02eb
f413
03f6
fbf2
041d
09ea
07db
f60e
0eec
fcfd
eb3e
fb15
ff39
00f1
0afe
f5f5
1204
0aff
17fc
0305
fd01
0cfd
1601
fff8
0112
fb04
05fe
1afe
fff8
f205
0406
09f1
0303
f2f6
f203
fdf9
04fa
f9eb
0b04
f6f6
08ee
e401
f5f8
09fc
f9f4
ff04
fdec
05f9
f1f3
0b08
16f3
0dfe
fcff
0a06
fafb
150a
14fa
07fc
0a0b
020b
0f0e
0400
11f6
0b0d
0e06
fe09
f20a
fefe
e9f9
10fb
f3f6
06f7
f7fc
ff07
0ef4
07fa
ecfe
06f1
f7f4
fef6
ebec
f4f9
e9f4
fc00
0001
01fc
fa04
0b00
10fe
13fc
edf5
14ea
1105
f303
0000
0000
0000
0000
0000
0000
0000
0000
0000
0000
0000
0000
0000
