02
38
08
40
d6
cd
bc
12
ba
e3
19
1a
cf
f7
c7
eb
26
d6
fc
ce
d5
ee
20
b3
24
43
ec
e7
ec
d1
15
1e
28
50
ba
c2
fa
e1
d4
37
25
3b
df
25
36
fc
d7
c9
61
f6
12
d2
26
ca
05
d0
1e
05
07
3f
e1
e3
0a
25
d2
27
4a
d5
29
e6
09
2b
34
26
1e
15
0d
31
48
df
cf
ec
1b
bd
dd
e1
c8
cb
ea
c7
0c
24
15
ea
d8
36
d8
f8
16
09
19
44
01
0c
ea
67
43
21
f3
cc
47
d2
f7
c2
d9
21
1c
e6
26
0b
00
00
00
00
00
00
00
00
00
00
00
00
00
00
00
00
00
00
00
00
00
00
00
00
00
00
00
00
00
00
00
00
00
00
00
00
00
00
00
00
00
00
00
00
00
00
00
00
00
00
00
00
00
00
00
00
00
00
00
00
00
00
00
00
00
00
00
00
00
00
00
00
00
00
00
00
00
00
00
00
00
00
00
00
00
00
00
00
00
00
00
00
00
00
00
00
00
00
00
00
00
00
00
00
00
00
00
00
00
00
00
00
00
00
00
00
00
00
00
00
00
00
00
00
00
00
00
00
00
00
00
00
00
00
00
00
