06f7
e4e2
02c2
031b
04fd
16ed
fef2
1cf5
090b
0feb
02fd
ee0d
f5de
c505
d705
c2e5
ecff
d6d2
0afa
0ff7
15f6
0ae6
f125
0522
15c9
03fa
1df7
dcdb
e2e9
fcea
fdf2
f7fc
e40c
2ef3
020a
01d5
0e05
1705
ffee
47f4
f214
1734
1315
ed7f
ff08
2c05
16eb
1db2
06dc
0706
fb1e
ebc0
e90d
fc09
f0ae
f1dc
2ee3
e90d
fdf6
28ff
ece4
0bd8
f6f1
e61a
0311
f9f1
fcf3
f605
e4ed
09cb
fc29
c224
2aea
f2f1
f1dc
0e0e
23f3
f8ec
e5e0
382b
4c24
cafa
f904
15ed
ff03
e9ea
edef
f822
e32e
e0fa
4014
d9fc
b10a
1e02
e202
e213
ff1c
d028
052c
0308
ff0b
210b
fb20
0a11
132b
f803
14d9
2cc6
ff13
e5fe
d705
d40c
26fb
3019
e3da
e3ff
0c0c
08f9
0be9
c9e3
07c1
1411
e42b
ffff
fd07
a22d
f2f1
ff11
eb0d
4525
1c2d
1418
ed2a
0e0d
e9f2
ee04
eae7
12bc
f609
e5d8
fbdd
db14
c8fd
c713
2205
160a
16fa
20d5
1aee
0df2
d812
e8ea
06be
00c1
0fe4
46e8
da09
f0de
1715
c10b
d8d7
ccd6
11ea
28d8
08ca
0a05
12f9
13e9
1eea
10fa
f4fe
cbf4
ceff
c11e
d6d6
eef8
fe0c
c1fe
e614
d8ec
37f8
2908
2a01
2100
09ed
1ced
2e02
33d7
df0c
effb
f7ff
f00c
0818
d211
0b01
000f
0307
1fd2
ec1a
f3f0
f7e8
eecf
10fe
010d
04dc
00e2
e700
f2ee
f21e
ebea
fcfa
fd2a
e612
20ce
f8f4
ec07
17ce
0edd
1cdc
00fc
01b7
eafe
0779
15ec
e7f3
ed15
f31d
ecef
e718
f42a
d517
dbd1
d53a
c71b
3cb0
0ec2
fbe9
e412
1109
0cfc
2804
ffdb
0219
0000
0000
0000
0000
0000
0000
0000
0000
0000
0000
0000
0000
0000
