01
f0
ea
fd
f9
2b
f2
f5
14
31
30
1d
14
61
d9
41
17
11
ea
ff
e7
07
ef
07
11
fb
ff
f9
e8
f1
ea
f6
fa
f7
2d
35
ce
12
fd
14
f7
06
ff
ca
e5
e1
04
f1
f1
07
30
fe
07
34
ed
11
dd
03
ec
11
eb
fd
de
1a
fe
0a
0f
ef
e3
f4
0c
d7
07
05
20
13
ff
e6
e1
29
f9
12
14
4b
15
04
00
e6
24
10
35
ed
d1
1f
f6
0d
1b
f1
03
ff
eb
eb
e9
f6
f3
e5
04
22
d2
2a
25
f8
24
23
0e
02
e5
00
00
15
00
00
00
00
00
00
00
00
00
00
00
00
00
00
00
00
00
00
00
00
00
00
00
00
00
00
00
00
00
00
00
00
00
00
00
00
00
00
00
00
00
00
00
00
00
00
00
00
00
00
00
00
00
00
00
00
00
00
00
00
00
00
00
00
00
00
00
00
00
00
00
00
00
00
00
00
00
00
00
00
00
00
00
00
00
00
00
00
00
00
00
00
00
00
00
00
00
00
00
00
00
00
00
00
00
00
00
00
00
00
00
00
00
00
00
00
00
00
00
00
00
00
00
00
00
00
00
00
00
00
00
00
00
00
00
00
