05
fa
fe
19
fa
2c
ff
26
d2
00
13
ee
08
f9
f5
dc
05
ff
03
f5
0f
f4
17
1f
dc
26
65
f0
ea
fe
ff
ec
fc
1c
d1
ff
05
1e
df
38
ec
0d
0b
e7
dd
07
db
18
4a
34
40
fd
f9
c5
f6
35
e5
aa
ed
f3
ed
13
fe
34
2a
f8
0f
ed
15
a6
fc
f6
e8
20
f5
20
ff
0b
05
1c
f5
c7
f9
e6
da
fd
ea
c2
0f
ee
f4
1f
e1
07
eb
11
0f
03
11
db
18
10
f1
11
12
fc
1a
ea
00
00
00
00
00
00
00
00
00
00
00
00
00
00
00
00
00
00
00
00
00
00
00
00
00
00
00
00
00
00
00
00
00
00
00
00
00
00
00
00
00
00
00
00
00
00
00
00
00
00
00
00
00
00
00
00
00
00
00
00
00
00
00
00
00
00
00
00
00
00
00
00
00
00
00
00
00
00
00
00
00
00
00
00
00
00
00
00
00
00
00
00
00
00
00
00
00
00
00
00
00
00
00
00
00
00
00
00
00
00
00
00
00
00
00
00
00
00
00
00
00
00
00
00
00
00
00
00
00
00
00
00
00
00
00
00
00
00
00
00
00
00
00
00
00
00
00
00
