f3
fa
0b
d2
e8
f6
db
f0
f9
0a
07
02
09
04
fd
0c
13
04
ed
fe
e4
e7
fb
ef
fe
0a
f1
04
12
09
01
03
0c
f4
06
0a
0d
e8
f4
f8
e6
11
e8
ed
14
ee
e3
ed
f7
e6
02
02
04
10
09
ea
d5
07
fb
ff
05
eb
f7
02
0b
09
06
1d
19
00
08
16
1d
15
00
eb
07
e4
ed
fe
fa
eb
f6
1d
f6
fa
0e
12
03
ea
06
0e
02
11
0c
fb
0c
dc
d9
f3
f4
f6
fc
e2
f0
e8
e9
f5
09
07
f4
11
f8
db
ea
ec
de
03
02
ec
f0
ff
00
00
f5
e8
0c
16
f1
fd
fb
15
f1
0e
16
f8
f4
15
00
ed
0a
f3
f5
02
fe
04
24
01
0b
03
07
00
0a
fd
f9
fd
04
15
12
f9
0a
06
11
0e
ff
f7
10
11
05
17
13
f9
f8
e4
ed
f0
f5
ed
f8
f3
f7
0b
f0
01
02
0f
ff
fe
fd
0b
10
0c
fa
f4
e5
dd
df
d4
10
06
15
1a
0d
e0
03
e4
04
fa
0e
0e
f6
13
11
f9
fc
ee
1a
11
f6
ff
00
0f
e0
16
20
f3
06
fd
fa
03
15
e6
ff
ec
10
0a
08
f4
ef
09
00
16
1f
0d
04
fa
09
12
0d
f6
1c
fe
1a
22
f2
ea
fa
9f
06
fe
15
08
01
e7
00
f5
d7
f5
ff
07
ff
d6
bf
13
f0
d9
05
f9
f8
06
0d
12
f4
01
00
fc
11
20
2a
0e
fc
05
e7
f1
e5
f7
02
03
14
f8
15
ed
0f
02
0d
1c
0d
00
10
e9
f7
f5
13
ee
07
db
f7
fc
fa
0a
fb
0b
f9
03
07
05
1b
ee
fa
05
08
ed
eb
0a
05
00
02
0c
25
12
14
05
ec
f1
f3
ed
01
00
f5
e0
bf
13
08
06
f8
fa
f6
eb
f6
0a
1a
10
fa
e3
04
0e
01
15
fc
f5
f6
fa
fd
fe
f8
03
0a
0d
1e
0b
fe
10
04
01
e7
eb
f0
ee
17
04
03
ff
f7
16
17
fd
12
fb
12
05
f3
ed
0b
12
03
fa
f6
f6
e4
ee
08
07
12
04
1a
04
fc
02
f7
f4
f6
06
ea
fe
04
f7
0a
ef
db
0a
fc
08
2a
0a
02
0f
1b
11
eb
e1
e7
00
08
13
fd
fe
f5
ed
02
07
13
03
0e
f0
f9
fb
f9
f9
0e
ea
ee
e6
06
03
01
16
15
13
e3
02
13
eb
f7
0d
f3
fc
03
f9
01
f8
fc
f7
f3
00
02
fe
14
01
08
18
10
0c
01
f9
f4
f5
01
f4
fa
06
f8
17
0b
04
0e
05
1a
16
0d
17
03
fe
18
04
0d
00
03
15
01
0b
0b
06
08
0c
ef
1e
f6
fe
02
ee
ee
fb
f4
f8
fa
01
fd
00
f1
f9
fa
f2
26
f6
0d
14
04
fa
f6
09
00
ee
0a
0b
ef
fa
08
e7
f1
f3
e9
ee
06
02
00
2a
03
ec
ee
f0
06
fb
fc
05
fc
e7
07
0c
03
04
ea
0f
f3
eb
06
07
fb
e6
01
06
ea
0a
de
eb
14
14
f9
eb
f2
ed
f3
f0
fd
04
06
00
02
05
05
ed
f7
01
14
11
19
f1
f9
08
0f
15
0f
f5
e3
01
fe
0f
15
14
17
0c
25
12
f0
03
17
11
ef
fe
28
00
f4
02
fb
09
08
f9
03
00
15
11
2a
f6
ff
06
03
17
24
f8
f7
01
e4
01
06
f8
f4
fd
ec
f4
00
fc
02
fc
04
f3
e7
f8
f4
fc
f9
f3
0a
fa
00
ec
ff
fb
0e
03
03
f4
00
ff
fd
ed
07
f9
f3
f1
f0
fc
f7
fa
ff
06
f5
16
f9
ff
e8
e4
0a
24
09
04
0e
1a
0e
05
0d
0a
e2
00
1d
d6
01
ff
0b
e8
e7
05
02
f9
0e
14
fe
0a
03
0a
f3
15
01
f6
04
fc
ec
f5
fb
22
13
0e
08
0d
00
10
08
f5
f1
ee
03
0c
f7
f4
1a
16
0d
f0
f5
ed
04
f9
fd
02
08
04
fa
0c
09
e8
e4
d6
07
0a
f5
05
fd
03
f8
fb
dd
0a
05
f4
0c
1e
1a
f7
f8
f6
0e
ef
e3
00
fc
0d
06
07
13
fe
09
0e
fc
f9
0c
fb
e6
02
d4
eb
0d
02
08
f8
fb
fc
0e
12
08
14
f8
e4
0e
ea
d7
ff
e4
dc
db
08
0a
36
01
fb
08
ff
f3
0b
02
eb
de
12
fc
ee
0f
0b
03
08
11
19
00
07
f9
ef
0f
e5
0c
fb
01
05
0c
01
05
0a
19
f9
0a
09
03
fe
fa
08
03
f0
18
04
e8
09
0c
03
fa
03
f2
07
0b
ff
fc
09
f4
fb
f5
f1
ff
09
fb
10
1d
f5
0c
f6
15
f1
f1
d8
f2
f7
fb
ef
fc
ee
f0
07
f3
02
18
f1
e8
01
e4
e0
15
e8
e9
04
fd
e8
f0
f1
f7
f2
11
08
18
1a
0a
0d
00
fe
ee
f0
e9
e5
ee
ec
f3
e2
ef
e6
e5
21
0d
15
2b
15
11
08
07
fd
fa
02
fb
fc
0d
03
e7
ef
e4
f9
0c
f6
16
13
02
f0
04
ff
08
10
fa
0f
00
f8
10
0a
16
10
f6
05
01
ef
bb
f9
f8
01
05
f6
fe
f5
07
3c
04
06
f5
e9
e1
fd
ff
f1
f6
10
f8
e6
0e
e8
04
f3
de
fb
01
04
e1
f3
12
e5
f4
fe
d4
ed
0a
ed
f0
15
dc
07
15
11
ed
fb
df
10
fa
02
f3
15
fe
00
07
f2
e0
06
03
e9
02
08
e6
ef
f1
05
26
27
ee
0c
03
f7
f3
10
00
f1
fb
00
01
ff
00
00
00
00
00
00
00
00
00
00
00
00
00
00
00
00
00
00
00
00
00
00
00
00
00
00
00
00
00
00
00
00
00
00
00
00
00
00
00
00
00
00
00
00
00
00
00
00
00
00
00
00
00
00
00
00
00
00
00
00
00
00
00
00
00
00
00
00
00
00
00
00
00
00
00
00
00
00
00
00
00
00
00
00
00
00
00
00
00
00
00
00
00
00
00
00
00
00
00
00
00
00
00
00
00
00
00
00
00
00
00
00
00
00
00
00
00
00
00
00
00
00
00
00
00
00
00
00
00
00
00
00
00
00
00
00
00
00
00
00
00
00
00
00
00
00
00
00
00
00
00
00
00
00
00
00
00
00
00
00
00
00
00
00
00
00
00
00
00
00
00
00
00
00
00
00
00
00
00
00
00
00
00
00
00
00
00
00
00
00
00
00
00
00
00
00
00
00
00
00
