20
03
1e
d2
19
25
e7
10
1c
fe
df
d9
0d
33
28
12
fd
ba
19
d9
fe
0b
16
07
16
0e
cc
3e
0a
17
39
63
1d
e7
ef
de
fe
07
05
f1
f7
1d
01
0f
01
0e
e2
f9
f7
f5
da
f1
f0
fe
f0
f5
05
e9
eb
f0
1c
04
da
d7
f4
ff
fe
dd
f0
13
f2
ec
aa
29
fc
09
05
e7
35
00
bb
0d
cd
da
54
fa
e3
c7
f3
e8
03
0c
ee
40
f6
fa
ab
08
f2
09
f5
e3
41
f3
eb
7f
eb
8b
00
00
00
00
00
00
00
00
00
00
00
00
00
00
00
00
00
00
00
00
00
00
00
00
00
00
00
00
00
00
00
00
00
00
00
00
00
00
00
00
00
00
00
00
00
00
00
00
00
00
00
00
00
00
00
00
00
00
00
00
00
00
00
00
00
00
00
00
00
00
00
00
00
00
00
00
00
00
00
00
00
00
00
00
00
00
00
00
00
00
00
00
00
00
00
00
00
00
00
00
00
00
00
00
00
00
00
00
00
00
00
00
00
00
00
00
00
00
00
00
00
00
00
00
00
00
00
00
00
00
00
00
00
00
00
00
00
00
00
00
00
00
00
00
00
00
00
00
