f9
03
1f
0c
2b
37
eb
dd
54
cb
c5
49
da
0a
f4
0e
d4
d7
25
f6
36
45
0e
6c
fe
02
f5
29
66
f1
e0
17
05
06
28
00
19
43
fb
e7
22
0f
c5
e2
d7
00
00
16
f3
0c
e9
f0
1b
fe
23
dc
10
ed
22
3c
18
01
04
ec
05
38
25
d0
00
2e
e5
15
3f
ce
e9
16
d1
15
37
04
1f
00
10
19
06
d5
25
d0
ec
ec
e8
24
2d
d8
cf
fd
2d
ff
e7
d8
00
00
00
00
00
00
00
00
00
00
00
00
00
00
00
00
00
00
00
00
00
00
00
00
00
00
00
00
00
00
00
00
00
00
00
00
00
00
00
00
00
00
00
00
00
00
00
00
00
00
00
00
00
00
00
00
00
00
00
00
00
00
00
00
00
00
00
00
00
00
00
00
00
00
00
00
00
00
00
00
00
00
00
00
00
00
00
00
00
00
00
00
00
00
00
00
00
00
00
00
00
00
00
00
00
00
00
00
00
00
00
00
00
00
00
00
00
00
00
00
00
00
00
00
00
00
00
00
00
00
00
00
00
00
00
00
00
00
00
00
00
00
00
00
00
00
00
00
00
00
00
00
00
00
00
00
