211b
e00a
c8e6
1515
030c
b3fa
1d0b
fa20
d923
da1c
d629
0511
e900
3712
4af9
f1e8
06fa
ebfa
f319
d90d
d923
f937
ea1d
001d
ff1c
c813
020f
170a
e2ef
cae9
2a11
21f6
0fe9
0d0b
fd1a
db1a
e222
ff02
3cf4
c71c
0136
3025
dcf5
f6f7
08e9
23f0
12ea
01d2
0dd9
16b3
fad5
e514
fc01
27f4
0816
e226
2c0d
0305
f602
1a11
0d1c
ff18
0438
dd10
f6f7
3fe4
d81b
fa26
403e
e1fc
03ff
1ff3
df11
fc07
eaef
c313
ccee
df08
22e8
25e3
19f1
d824
f600
cf04
d61e
ddef
ebe8
f02c
0af8
0907
2aec
370c
20b4
f8d0
31dc
00e1
d7de
dc15
dcf5
1a24
47d9
1bce
c10c
f1d9
eef6
1202
fefb
d904
08ae
17f3
3e0a
01e5
09b5
17fa
bf12
95f9
8cb9
1fe3
291c
f501
f421
00fa
22e3
c41e
c240
e91f
04ff
ebea
f00d
14f3
1013
e22c
5ddd
ddfd
81ff
e3d3
fc04
1d18
f2dc
0302
1e0b
ea02
0fc8
efcb
0000
0000
0000
0000
0000
0000
0000
0000
0000
0000
0000
0000
0000
0000
0000
0000
0000
0000
0000
0000
0000
0000
0000
0000
0000
0000
0000
0000
0000
0000
0000
0000
0000
0000
0000
0000
0000
0000
0000
0000
0000
0000
0000
0000
0000
0000
0000
0000
0000
0000
0000
0000
0000
0000
0000
0000
0000
0000
0000
0000
0000
0000
0000
0000
0000
0000
0000
0000
0000
0000
0000
0000
0000
0000
0000
0000
0000
0000
0000
0000
0000
0000
0000
0000
0000
0000
0000
0000
0000
0000
0000
0000
0000
0000
0000
0000
0000
0000
0000
0000
0000
0000
0000
0000
0000
0000
0000
0000
0000
0000
0000
0000
