1f
14
ee
2e
0f
e7
41
0a
b5
26
e8
d1
27
ff
d6
15
f1
b9
ed
e5
10
f9
f9
12
06
1d
ff
f4
f7
0f
dc
00
23
e1
08
1c
0c
d5
ba
66
46
fb
27
31
3e
28
f6
d2
2c
23
0f
ec
19
29
00
0f
f9
eb
2a
0f
f8
dd
fb
05
10
19
05
e2
0f
27
fd
e9
f1
0e
41
cf
da
68
e5
02
39
cd
f1
59
e5
cd
46
fd
03
48
18
06
ee
19
05
d3
06
f5
e7
08
0c
e8
1b
11
da
0d
f9
e0
00
00
00
00
00
00
00
00
00
00
00
00
00
00
00
00
00
00
00
00
00
00
00
00
00
00
00
00
00
00
00
00
00
00
00
00
00
00
00
00
00
00
00
00
00
00
00
00
00
00
00
00
00
00
00
00
00
00
00
00
00
00
00
00
00
00
00
00
00
00
00
00
00
00
00
00
00
00
00
00
00
00
00
00
00
00
00
00
00
00
00
00
00
00
00
00
00
00
00
00
00
00
00
00
00
00
00
00
00
00
00
00
00
00
00
00
00
00
00
00
00
00
00
00
00
00
00
00
00
00
00
00
00
00
00
00
00
00
00
00
00
00
00
00
00
00
00
00
