4f
1a
00
27
01
f1
ef
b4
eb
e4
27
21
db
fe
e6
38
03
fc
bf
30
d0
16
a5
ef
11
38
2f
fc
05
10
e7
f5
b0
33
bb
2c
26
09
1d
29
af
1b
f4
d9
eb
33
fb
23
18
f4
fe
03
ea
09
e3
12
eb
18
07
fc
00
f9
07
11
bc
18
c3
f1
f2
02
f0
2e
2b
ce
f9
0e
f9
dc
11
ef
1e
db
f3
30
f9
14
fe
f3
d5
02
fa
22
3a
0f
1b
12
0f
ea
f0
fd
f9
0c
0a
cb
eb
2f
07
fc
00
00
00
00
00
00
00
00
00
00
00
00
00
00
00
00
00
00
00
00
00
00
00
00
00
00
00
00
00
00
00
00
00
00
00
00
00
00
00
00
00
00
00
00
00
00
00
00
00
00
00
00
00
00
00
00
00
00
00
00
00
00
00
00
00
00
00
00
00
00
00
00
00
00
00
00
00
00
00
00
00
00
00
00
00
00
00
00
00
00
00
00
00
00
00
00
00
00
00
00
00
00
00
00
00
00
00
00
00
00
00
00
00
00
00
00
00
00
00
00
00
00
00
00
00
00
00
00
00
00
00
00
00
00
00
00
00
00
00
00
00
00
00
00
00
00
00
00
