d2
27
b6
dd
f1
56
1d
ed
c2
63
d2
0a
c2
3c
c2
de
b0
a4
1b
cf
e3
c2
5c
d6
e7
c0
ff
5a
38
fa
7b
09
ad
ed
dd
f7
10
ab
fb
2c
ca
fd
9f
6f
19
d9
df
a0
e9
be
65
f7
d1
67
1e
fb
f3
e7
76
31
ef
e9
e2
b1
2d
e1
20
54
70
0c
15
38
50
34
ce
08
64
33
e6
d9
35
04
65
f1
be
48
5a
00
f4
96
f0
35
cd
24
d7
ab
23
ec
e8
41
b9
d6
d7
c8
3a
4d
04
46
48
e6
5f
ca
d9
f0
d8
f7
cd
05
c9
45
00
00
00
00
00
00
00
00
00
00
00
00
00
00
00
00
00
00
00
00
00
00
00
00
00
00
00
00
00
00
00
00
00
00
00
00
00
00
00
00
00
00
00
00
00
00
00
00
00
00
00
00
00
00
00
00
00
00
00
00
00
00
00
00
00
00
00
00
00
00
00
00
00
00
00
00
00
00
00
00
00
00
00
00
00
00
00
00
00
00
00
00
00
00
00
00
00
00
00
00
00
00
00
00
00
00
00
00
00
00
00
00
00
00
00
00
00
00
00
00
00
00
00
00
00
00
00
00
00
00
00
00
00
00
00
00
