14
13
0a
f1
f9
07
e3
00
00
d1
0d
f3
1f
f4
ee
ea
1d
37
ec
fa
d0
d8
cf
15
19
20
1e
4a
4c
54
02
09
fd
15
12
e0
0b
16
05
f2
f0
08
ea
ff
48
2e
1d
43
f4
e2
f4
19
04
e7
e4
e5
dc
10
f9
02
0d
27
1d
2e
2c
42
e7
fd
05
f5
0b
25
13
01
10
fa
ee
cd
ca
d4
d6
da
05
e2
0a
f2
0a
59
57
4b
16
10
3e
03
12
00
12
e9
da
03
d8
e5
4b
0b
1d
2c
17
f9
1d
fc
0c
26
00
fa
00
e5
ea
df
e9
cb
14
00
f4
df
1e
10
ea
fc
d6
f4
12
09
08
24
06
3c
18
17
1c
f1
f4
00
f2
f4
ce
f3
00
d5
24
ed
17
38
f3
f9
f6
ee
1e
09
ee
ff
ec
e6
fe
f7
f7
02
09
01
d2
fc
fc
f1
ff
03
0f
0d
02
2a
12
14
00
e9
05
fc
e2
fa
27
06
2b
fd
eb
e4
ed
f7
ea
bb
eb
da
f5
ff
05
f2
fa
0a
1e
18
27
04
fd
e5
ec
f7
fa
c2
f6
e8
2d
0f
1a
03
6a
f7
db
4c
11
5b
39
32
04
be
1d
0c
dc
04
e1
ed
3a
27
e2
29
24
f3
57
21
db
0a
00
0d
f9
d4
05
fa
0b
35
24
02
fb
03
13
05
13
f7
cd
0e
f4
50
ff
b9
30
e8
27
0e
ef
04
09
20
01
eb
05
d8
9b
07
07
f0
92
44
01
e5
cb
ce
d5
0c
33
e9
33
16
ff
4e
1e
d0
fc
37
34
de
e8
3d
0d
ee
0d
12
08
cc
0a
13
fc
3a
31
f1
dd
0c
5c
e9
d8
0b
0d
01
11
08
fc
0f
f7
0b
08
0c
ed
e8
20
0c
23
2d
19
27
21
09
f1
27
06
fb
3a
0c
0d
12
11
4a
d8
e8
f5
ea
fc
eb
16
ed
fb
f5
f8
ef
1f
1c
27
e9
08
41
ed
f7
01
f4
01
f6
02
f9
fd
2f
12
fa
fe
ea
e1
f5
29
23
eb
fd
16
01
05
fc
fb
05
2c
df
17
14
24
2b
ff
f7
f2
d4
20
13
e6
08
da
f1
fb
0d
15
e4
0d
1c
f0
09
14
08
10
07
1c
17
f1
e7
ea
f5
eb
f6
00
12
10
09
42
08
ed
dc
ef
c5
02
23
fe
fa
db
e6
f4
24
dc
03
e1
fd
bb
d5
f4
d7
f9
43
f6
08
22
0f
ef
fb
15
ef
bf
fe
f4
f9
dc
d7
f9
d9
0c
f9
ea
0e
18
19
1d
12
f4
e8
2a
ee
18
39
f4
38
1d
0f
d4
d6
4e
05
f4
29
f1
26
10
20
f8
34
01
fc
06
d1
eb
ea
0e
1b
d5
0c
17
06
43
ed
1c
03
dc
f7
c5
c5
fd
da
2c
c8
06
16
bb
16
05
db
10
03
00
00
00
00
00
00
00
00
00
00
00
00
00
00
00
00
00
00
00
00
00
00
00
00
00
00
00
00
00
00
00
00
00
00
00
00
00
00
00
00
00
00
00
00
00
00
00
00
00
00
00
00
00
00
00
00
00
00
00
00
00
00
00
00
00
00
00
00
00
00
00
00
00
00
00
00
00
00
00
00
00
00
00
00
00
00
00
00
00
00
00
00
00
00
00
00
00
00
00
00
00
00
00
00
00
00
00
00
00
00
00
00
00
00
00
00
00
00
00
00
00
00
00
00
00
00
00
00
00
00
00
00
00
00
00
00
00
00
00
00
00
00
00
00
00
00
00
00
00
00
00
00
00
00
00
00
00
00
00
00
00
00
00
00
00
00
00
00
00
00
00
00
00
00
00
00
00
00
00
00
00
00
00
00
00
00
00
00
00
00
00
00
00
00
00
00
00
00
00
00
00
00
00
00
00
00
00
00
00
00
00
00
00
00
00
00
00
00
00
00
00
00
00
00
00
00
00
00
