11c0
04d3
0713
0f0a
14e4
09ed
0ac7
00c1
e5f2
2420
0cfc
0df3
0803
eaf3
de03
1204
5307
270f
18d3
001d
1d1c
fae7
f1f8
0812
dd11
0207
150c
0aee
1afe
102b
1400
fc1d
faf1
f804
0402
131e
f5fc
faf2
f21d
f2ec
051b
1506
0cd7
f7f9
fbd5
0e08
0622
07f3
23fa
1afe
f9f7
0cbf
1009
f5fc
2a02
150a
192f
ffd6
1318
2102
ef01
f63a
d518
ebbe
db9a
b0c5
f8dd
0695
d9d1
21c3
e9a5
88d6
fd0d
0e1c
01d1
021b
15ea
0b05
fe10
1e16
f9d9
fc01
f715
19f5
dc1b
e7ff
f0ce
2c0f
e30c
ec00
d80f
e3fa
d8f8
f5f9
eb14
07fa
f31a
0d15
2c09
b9ab
edd4
06fb
050d
dfe8
1307
3dfc
16f8
f82b
09f6
f7f2
eae7
0c04
0fd5
11ed
fcff
0bf7
3714
1104
0103
07dd
0c0a
140b
19d5
1301
f6fb
f7f7
0cf2
07f8
feeb
100c
0819
0a11
c806
f207
f2ea
ccc8
dbf0
cddf
eef5
1609
091e
d30e
0508
0806
e9fc
f505
e316
1501
1007
e4eb
070e
ebe0
e3cd
1003
0bf5
2e06
c4eb
b5ff
291f
f300
ff06
9cf1
110c
3203
4015
0819
fe03
eb11
efc1
07e5
1e12
fcf8
d7fe
c3cd
f2e4
fce6
f209
e503
eaeb
1619
3781
1ecb
1700
1723
d3fa
f108
1002
02ff
1106
19f1
18d8
e8b1
f606
c3fc
e016
ff1c
1706
0d20
e8f0
0702
f3e7
deef
f1f5
07fb
d2df
f1e6
e405
ee02
0701
f0fb
0af3
25fd
2418
f819
f911
f205
edea
02fb
fee9
1bfd
f423
1d07
3d06
2f2e
4de6
ce07
fafc
19ec
dce0
0e12
05fa
e3b4
e805
fd06
c117
0603
fc21
0400
0be7
2ef2
e4bd
d7e0
e9c2
0000
0000
0000
0000
0000
0000
0000
0000
0000
0000
0000
0000
0000
