ea9c
1809
f8f6
0e5c
162c
ed06
fffd
d2f9
9810
13c3
0bbe
0fd7
f3f1
07dc
09fa
fa2b
ce02
fa01
b505
fc16
16e6
f92c
0bfd
05c0
1c22
26d9
20e4
a7ec
c4f8
d40e
05f1
f401
0a09
2ff0
01be
08f1
c64c
090c
06f2
e005
0be7
18fb
02e1
030d
08ec
3b01
13d8
10e4
0f16
11f3
130a
cf15
f31e
ff06
25b6
f9da
fc1e
e9d0
0bf0
1830
d8f7
e505
da04
00e1
1418
1725
2311
0f0c
080b
00fb
00fb
e803
f8d0
daaf
ddc3
dae9
eb06
15e8
d000
c8fb
b3fb
e0ff
0de4
1ea3
e711
170d
2df8
ef03
0c29
11fc
e524
d636
f850
0201
1200
02fb
17d1
2a00
1516
09fe
04e0
f1c1
02fd
eaf0
fa13
0536
d404
e341
070a
e910
ceee
fae6
f6d8
fefb
f5ee
ecf2
1e21
5a17
0cee
3ae6
2af7
ef02
0b20
fefd
080b
04fe
100f
fe06
0df6
1923
e501
0437
1a0c
fafd
f8e9
eb01
f504
f022
0712
e709
02ef
250d
190d
15fd
3009
3012
11ec
ef12
fe04
040a
8e0f
bb08
c324
0b0b
1138
ec4d
02f8
03d6
1104
22f4
25e6
3bd1
b60c
1de3
55e0
fc15
ffef
dcbb
16f7
21de
3dfb
03fa
e20f
da34
3bdf
0ccf
f6e6
20e5
eed4
00f6
ac17
f40b
42e9
9b2d
190f
0511
dbde
1f12
edfb
e431
bd07
0ef0
df01
e5d8
09c7
01ee
1bdd
fcc3
1030
15e1
0dc6
f906
d819
e71d
e526
18ee
fc1d
14ee
6424
e91f
f7f3
fe16
ed3c
e1bb
1801
fd29
30ee
fdf6
f737
eb12
d91b
0317
e4c7
f609
1fdc
cc36
e4f8
3f07
0823
33e5
19d6
45d4
3adf
e7f5
0af7
c914
ea4a
06c7
e3a6
dfe7
f7d9
feed
1509
0000
0000
0000
0000
0000
0000
0000
0000
0000
0000
0000
0000
0000
