0d
f7
0e
e2
0d
52
d0
80
26
63
eb
2a
2a
c2
fb
3b
fd
e4
3a
0c
37
bc
d2
f2
0e
32
44
0b
7f
fb
e5
06
fc
ed
ff
f2
ee
e6
27
f6
2e
9e
24
f2
08
31
21
2c
04
51
b5
f1
d9
3d
f0
f2
c5
19
09
d5
02
fd
ea
f2
f4
fa
ea
ca
12
24
73
48
63
07
e9
d0
34
ed
b5
d1
d9
eb
c3
f1
c1
5a
f2
2d
cd
b8
46
e4
d4
28
eb
2d
1b
f2
f5
e3
13
91
00
d7
03
27
4d
ef
0f
46
91
e6
16
c4
f6
e3
df
1c
0c
0f
00
00
00
00
00
00
00
00
00
00
00
00
00
00
00
00
00
00
00
00
00
00
00
00
00
00
00
00
00
00
00
00
00
00
00
00
00
00
00
00
00
00
00
00
00
00
00
00
00
00
00
00
00
00
00
00
00
00
00
00
00
00
00
00
00
00
00
00
00
00
00
00
00
00
00
00
00
00
00
00
00
00
00
00
00
00
00
00
00
00
00
00
00
00
00
00
00
00
00
00
00
00
00
00
00
00
00
00
00
00
00
00
00
00
00
00
00
00
00
00
00
00
00
00
00
00
00
00
00
00
00
00
00
00
00
00
