80
a8
bf
26
23
27
08
2b
13
a6
c5
d9
0f
df
b4
0b
ea
02
fb
09
e1
f3
ff
fb
0f
12
1e
f1
f9
ce
a2
d6
fb
e8
2e
7e
10
e6
f2
12
e6
bf
11
15
e4
1d
09
04
1b
0f
fe
30
e0
0b
ec
26
de
ee
10
da
f1
26
7f
49
a9
e7
24
1a
13
1a
3e
46
09
37
46
bc
2a
2f
ee
05
b8
ca
f6
5c
28
2f
05
9e
8e
80
dc
26
05
80
fb
28
f3
31
42
df
47
02
f5
27
f9
ad
80
86
16
1f
2c
b6
c7
ef
07
d0
ab
17
15
0b
ed
00
07
21
f0
45
27
52
36
15
18
01
14
16
40
59
34
34
0a
e4
04
28
fa
19
0c
b6
f9
da
72
21
64
0a
e3
e8
aa
a7
fc
0c
b9
53
f8
e0
05
0f
92
2d
ef
80
37
a6
ce
2d
29
ff
1b
00
ec
1e
e7
d7
0f
13
08
13
0d
1a
ce
2c
31
00
f9
1f
0b
fa
0f
f6
0d
43
1e
ef
05
16
f3
f6
ff
df
eb
24
02
08
01
21
1a
05
1a
2d
f0
c3
e8
0a
d4
46
eb
12
3f
f2
1a
59
fb
1e
65
eb
05
5e
e8
e3
12
f8
d9
ee
f9
fe
d6
10
80
1f
ef
bc
f8
17
eb
22
fb
08
f9
05
0b
f0
0b
e4
02
13
50
08
33
19
14
0f
f1
3a
f9
2e
2c
16
18
d5
e5
02
2d
f6
fb
ee
11
fb
13
34
11
fa
25
ce
f6
61
23
ca
af
df
0e
40
1a
de
ef
41
b1
bf
b2
ae
fd
19
07
fb
e1
18
f5
09
b2
75
ee
fe
f6
ed
d3
ee
f4
d6
bc
c3
80
57
fa
23
fe
e4
e0
01
c7
b6
d9
2f
89
ed
31
f8
fd
49
ff
d3
29
3c
dc
ba
ee
33
10
e2
e2
67
4e
da
16
21
00
00
00
00
00
00
00
00
00
00
00
00
00
00
00
00
00
00
00
00
00
00
00
00
00
00
00
00
00
00
00
00
00
00
00
00
00
00
00
00
00
00
00
00
00
00
00
00
00
00
00
00
00
00
00
00
00
00
00
00
00
00
00
00
00
00
00
00
00
00
00
00
00
00
00
00
00
00
00
00
00
00
00
00
00
00
00
00
00
00
00
00
00
00
00
00
00
00
00
00
00
00
00
00
00
00
00
00
00
00
00
00
00
00
00
00
00
00
00
00
00
00
00
00
00
00
00
00
00
00
00
00
00
00
00
00
00
00
00
00
00
00
00
00
00
00
00
00
00
00
00
00
