06ff
e7bb
00db
11eb
ddf9
0ccc
0cf2
fe07
2db9
26dc
eb02
3f23
26d7
03f3
0e0d
f5b7
055e
0ef5
f315
e60a
0a02
0e13
f7b6
e6f2
bb90
14cc
e3da
d6e1
15f2
02e5
fde7
1cf2
f812
f11b
2f06
f50a
e3ef
12e3
dcf1
f4c0
1801
d5d2
fca6
1476
ddfa
11f5
09dd
fcff
fd00
30fa
f1fe
27dc
021e
f9fc
bdde
060d
0eeb
0c0f
0cdb
07fc
03f1
0be9
0232
0d04
0cd0
fd03
d6e9
f608
fedf
f80d
13b2
f948
25cd
e603
f4fe
f4c9
f713
faea
3508
e1df
00c3
f5bb
16eb
0f96
c7fd
f5d8
10ee
e7dd
d614
e600
13d4
0ae0
1816
27ef
0604
f7fa
1505
15df
0ff6
ecfc
edeb
08ed
f3e7
cffb
f2ef
f6e9
f8d1
e8f1
fa08
142b
f9f3
f3e0
18e0
fc02
03f9
1218
10fb
f1ea
f6ee
f211
1ab3
d2f3
1e07
21d9
11f4
df10
e4eb
1906
1419
100f
020e
fa5a
370c
fe01
0e2b
011c
fde4
f1e5
f6fd
f812
fb13
edf1
fc06
f106
ece6
f91c
e3fd
0bc3
0ff8
e6f8
09ed
0726
10f4
f7e1
10f3
04f1
e0c6
07fa
e4ec
f2fe
fbd7
f6f5
1efb
1a10
e8ed
e10f
ebf8
ee01
e8ed
f3e4
f4b2
dd04
02f5
e8e5
03fc
de1d
d817
23ef
e9e7
dccd
fa06
d2dd
ef08
fad2
1ccc
eb04
e707
e610
efe2
f6f1
24e4
f0fd
d2f1
d912
e7ed
05fb
3000
eb05
f316
daf4
f4fc
dde9
cbf7
c325
dbe0
fbc7
f7da
2b0f
faf5
09fd
3907
ea10
f811
45f7
e1f8
fdf0
02fe
05dc
09fb
17f0
d1fe
22e0
f702
e4f6
270c
f5ce
fee2
f0ee
02ff
f206
ead6
ef10
f803
fbe9
100a
f3e6
0df7
04fd
0e14
effc
d1f3
cde3
f8f0
0000
0000
0000
0000
0000
0000
0000
0000
0000
0000
0000
0000
0000
