0d
09
0a
01
05
10
f0
fe
0a
db
d0
ee
d7
db
f1
e2
f1
f1
fc
fc
06
15
fd
ff
03
f8
06
d1
df
d3
f5
0c
ee
24
0e
0e
08
11
00
0b
07
08
0a
0e
0c
2b
02
05
11
e8
fc
07
e8
0d
ef
fd
fc
05
f1
f6
12
12
17
05
01
0c
fd
06
06
fb
05
11
fd
f6
05
f8
0c
00
e2
f3
dd
16
1e
16
23
10
28
05
fd
01
db
eb
0d
bf
12
18
df
14
c7
cd
e8
05
05
01
0b
1c
1f
15
12
01
1d
12
08
21
f6
ef
01
13
22
00
03
07
0a
e6
04
c4
f8
09
f1
06
1e
1b
01
08
d0
b0
d8
fe
fb
10
22
07
2a
01
2b
05
0a
0c
00
fb
b1
0c
f0
e8
e5
02
e2
f6
fc
ef
c7
c0
f7
02
18
cd
e6
ed
1d
0e
1a
0f
06
f7
fb
f9
0a
d8
db
e7
3b
1c
00
1d
ef
02
b6
da
1a
b8
f0
12
a6
fe
02
d5
0a
e8
f5
0b
16
fa
fb
06
de
fd
e6
0a
ed
f1
dd
03
ee
e1
29
1a
de
f3
f6
ed
13
1c
06
1c
0b
d0
d8
0b
e0
b8
12
f8
f3
04
0d
fe
f8
fa
fa
03
2a
48
02
08
08
d5
23
f4
0b
f6
dc
f9
05
26
ef
fb
03
e8
d5
c7
07
0a
ed
f2
07
07
f6
01
d9
fe
03
f6
fb
22
1c
07
ef
0d
ef
fb
f8
cd
1d
01
ff
20
0c
13
00
eb
d4
ff
e6
1d
fa
03
45
e1
e6
dd
24
0f
fc
ec
dc
00
09
08
f5
07
f6
f5
e7
07
d8
23
d6
f7
09
bb
cd
14
f0
e4
fa
ff
1f
36
ef
ea
0c
f6
db
f6
0c
2a
fe
f6
12
c2
cc
d0
f1
f5
09
cf
14
23
fa
18
0f
21
0c
0d
e5
ec
23
c2
f8
0d
23
f8
f0
f1
13
e1
fe
05
f5
0f
2d
22
00
ff
ee
e5
d1
f1
13
11
1c
fc
0a
11
cc
da
19
f6
f6
16
e3
da
d8
07
14
f1
ca
da
e5
06
01
f5
04
fb
e5
06
0b
1b
0c
02
11
e3
f2
f6
db
f5
e7
00
ee
10
05
04
14
f4
0b
e4
e3
f6
0b
31
37
e4
0e
d6
e7
0d
0c
f3
0b
2a
37
e6
08
f4
1c
18
0e
fc
0a
2a
df
f9
f9
f6
0d
ec
f2
f3
ff
11
10
00
f3
f4
ec
4a
00
dd
f5
d7
e7
e7
ea
f0
1e
0d
05
17
f4
d9
1d
fa
22
f7
f6
eb
11
1e
1a
1e
f7
fa
f7
08
f9
12
22
19
f6
e9
f3
f5
f7
f3
f1
ef
fe
ff
15
09
ff
01
d6
e1
ee
e1
f6
08
fa
e5
f4
ed
db
ed
e2
f7
05
22
fb
27
24
e4
e7
f9
eb
07
03
f8
ec
ea
10
0b
03
12
0e
07
27
0c
f8
10
20
26
13
0e
e6
09
0d
e8
31
1d
1e
0f
11
fb
07
18
1a
fe
e3
fe
e9
fc
ea
fc
fb
04
ff
0b
e8
01
01
db
06
ff
f8
05
38
3b
f3
f6
e2
1e
1a
28
13
f1
f1
fe
e5
fb
03
ff
fb
0d
0a
fa
03
ef
de
fd
f7
f2
ef
08
05
04
19
07
08
25
fe
09
f5
eb
0d
0b
0f
08
e9
d1
f5
02
f0
2a
e5
e2
0d
17
e6
01
e7
24
0e
fa
f1
1f
e5
a0
fd
f3
07
16
fe
18
27
cb
f9
02
0d
02
0f
29
28
e9
f3
ec
d6
fe
cf
f9
f6
f8
19
1d
f4
22
22
fe
d9
ef
0f
d2
0b
04
d8
05
fa
21
f6
fb
05
ea
29
df
db
d2
02
f4
f8
f3
1a
14
d7
15
f0
f2
19
1c
c1
e8
e2
c7
d8
e5
e3
cd
de
0b
df
09
0e
06
ed
10
29
2c
f6
01
19
aa
f9
62
e7
0a
e8
f9
1a
16
2c
1c
03
35
2b
f2
35
ff
f7
cd
e0
f4
e6
e6
f8
e3
d8
07
d8
09
0f
d5
fa
0d
00
fa
f6
04
2c
1b
f0
ff
dc
35
2a
19
0c
09
ff
e1
2b
0f
ec
23
fe
06
e6
fb
e0
1c
fb
fa
f2
09
1c
e6
d5
fd
17
0f
43
0c
26
05
f8
df
06
fe
d1
03
dd
d8
df
fd
0e
f4
12
ec
fc
ef
15
f6
f9
f5
00
ef
01
c9
ec
0a
f7
d5
cd
e4
e5
00
0b
de
f4
d6
fc
e4
0a
28
00
2a
f8
ec
1f
3c
16
03
fb
08
23
2a
1e
1d
f9
f5
28
c0
db
ba
f2
13
00
f9
0b
0d
18
e5
02
00
0b
f2
da
20
16
01
e1
f3
e5
fa
ea
d5
0e
00
12
f4
fc
b8
b8
0a
ff
09
bc
e3
15
15
ff
fd
01
d3
cf
f5
0a
f1
e9
09
f7
c3
db
e2
d9
f2
01
f6
ec
cb
e8
dc
d9
12
0f
f9
07
fe
ff
14
03
21
de
f1
25
ea
d7
00
05
12
13
04
00
2f
f8
0f
33
fa
16
f7
0b
0f
f0
ff
f3
e7
f5
fe
04
f7
13
de
f6
0b
eb
ff
e7
f6
f5
14
18
05
f1
18
e6
f1
06
01
04
ef
1b
1c
1a
0c
0b
f9
f6
e5
c4
11
ff
f8
f5
02
f3
f8
f8
31
f4
f0
09
1d
1f
fa
ed
ec
fb
e4
fb
0f
0c
f5
15
19
0e
1c
11
00
23
ff
00
02
01
07
03
fe
fd
f6
d1
f1
d0
04
1a
05
fe
13
01
f4
01
20
10
0e
f2
21
01
f3
e6
0b
eb
f7
fc
ec
11
20
0f
d3
e9
e6
08
fc
0a
0d
eb
06
f3
01
04
f7
03
f1
e9
e5
cb
eb
f7
f7
00
06
16
19
ed
0c
00
00
00
00
00
00
00
00
00
00
00
00
00
00
00
00
00
00
00
00
00
00
00
00
00
00
00
00
00
00
00
00
00
00
00
00
00
00
00
00
00
00
00
00
00
00
00
00
00
00
00
00
00
00
00
00
00
00
00
00
00
00
00
00
00
00
00
00
00
00
00
00
00
00
00
00
00
00
00
00
00
00
00
00
00
00
00
00
00
00
00
00
00
00
00
00
00
00
00
00
00
00
00
00
00
00
00
00
00
00
00
00
00
00
00
00
00
00
00
00
00
00
00
00
00
00
00
00
00
00
00
00
00
00
00
00
00
00
00
00
00
00
00
00
00
00
00
00
00
00
00
00
00
00
00
00
00
00
00
00
00
00
00
00
00
00
00
00
00
00
00
00
00
00
00
00
00
00
00
00
00
00
00
00
00
00
00
00
00
00
00
00
00
00
00
00
00
00
00
00
