c806
fdd7
05cb
cdaf
fdd5
0223
fbdd
ed3c
102b
38f3
d7f0
d002
3100
e238
e82f
0d04
e6dd
07e0
bf11
f90f
7fe4
c604
27d6
1cdb
fb9f
1ef2
0a34
2df5
0dfb
1a01
fe00
f615
0806
fd48
f20c
17c9
0906
10fd
090d
23ed
01e8
eb0d
e3f2
c621
de18
03fb
ee03
dfe2
f915
e72b
f614
1127
190d
23d4
f40a
f845
1759
20e3
3add
410a
02de
f7cf
eb55
f816
e8fa
d0cb
e6f6
ce22
c5db
0908
0915
0cf2
3c0f
40f9
34ef
5208
3dee
44ee
3302
32ec
36fa
e7ec
04e9
09f2
0ee1
0608
0b10
21dd
280d
0c12
1624
1530
00fe
2420
0b11
eff0
e914
00fb
2fdc
f73c
0611
182f
f30c
ca13
fe38
1120
fc13
e03a
0000
0000
0000
0000
0000
0000
0000
0000
0000
0000
0000
0000
0000
0000
0000
0000
0000
0000
0000
0000
0000
0000
0000
0000
0000
0000
0000
0000
0000
0000
0000
0000
0000
0000
0000
0000
0000
0000
0000
0000
0000
0000
0000
0000
0000
0000
0000
0000
0000
0000
0000
0000
0000
0000
0000
0000
0000
0000
0000
0000
0000
0000
0000
0000
0000
0000
0000
0000
0000
0000
0000
0000
0000
0000
0000
0000
0000
0000
0000
0000
0000
0000
0000
0000
0000
0000
0000
0000
0000
0000
0000
0000
0000
0000
0000
0000
0000
0000
0000
0000
0000
0000
0000
0000
0000
0000
0000
0000
0000
0000
0000
0000
0000
0000
0000
0000
0000
0000
0000
0000
0000
0000
0000
0000
0000
0000
0000
0000
0000
0000
0000
0000
0000
0000
0000
0000
0000
0000
0000
0000
0000
0000
0000
0000
0000
0000
0000
0000
