091a
f123
a209
07eb
100d
11f6
f3c3
0af1
01ed
f1df
0ae5
0403
f2dc
fde7
16e8
dcf9
cf18
d61f
f308
ea17
030d
01fe
1309
2efc
c8df
f8ff
eb09
0911
def1
d9d7
f22b
f6f6
14e5
db19
c5fe
ba04
fcf8
fe16
b820
01ef
0d05
eaff
ffe0
0819
dcf6
f0eb
2c00
2d2e
1fed
fa02
fd0e
0616
1337
01f6
15c8
25f5
07f3
fe06
1829
f701
ca0d
dd09
d6fa
0cde
13eb
f614
0ec9
09f5
041d
3fee
24fd
29e0
ec0f
03e8
1ffa
d4dd
e7f7
e5fd
1002
f0f5
f502
fd03
31ff
cf17
09f6
26f6
e623
02df
e8ea
27ef
ed03
e7f5
d7ff
f3fb
f0de
e6dd
f506
15e8
e4f0
cb15
040a
dc17
001c
140d
1b07
121c
03fa
26fd
f81e
d723
d936
01fc
1504
eb16
0be9
3b00
1b0d
fae3
13d6
efe9
d7f9
edf0
d4ff
d920
050b
c73b
d206
ecfa
e1ef
d7fb
ff05
eafe
f1f8
ed08
e118
08e9
1ce7
0ff2
080a
d613
ed17
0218
ca17
fefd
00f0
18f5
fbf1
01dd
00fa
faf0
ea05
f8f2
0d07
04ff
ebfd
0cf9
11c8
1207
2304
f7e2
dbc9
03a5
cff8
d7ff
02f8
fd0e
fa2c
f32c
f902
ea12
e235
0913
1311
2e2e
11ec
f7e5
d8b6
f1e8
02ef
12d0
14fa
0ff9
0f10
c003
ea11
1917
0fd6
1d04
fdfd
1405
2025
2221
eadf
08f3
f20b
0fd9
fbc2
f7df
fdfd
e5fc
f3dc
f61a
fb0e
121b
f903
f515
07d9
1806
1809
11f3
2c28
f5e5
0fde
effd
2eee
16f7
1000
fffe
09d3
dd02
fef7
fbf1
33dc
55f0
ed0d
fd07
f6ee
e5cf
f513
defd
fdf4
ce2d
f105
ed15
13ff
00e9
eaf4
0eb1
1ce5
f705
e5fd
07e3
dbf3
0000
0000
0000
0000
0000
0000
0000
0000
0000
0000
0000
0000
0000
