1b3b
2401
d065
f621
d70a
dcd9
fef8
e140
1804
075b
f3cd
2ae8
f507
ddef
06fe
29e2
0cbd
f50b
f8e7
051e
0b0a
f1d7
2cf6
e615
ed38
e8f2
fdbb
0ed6
fdf0
ed18
e101
d3c8
efb2
0413
043f
0f35
1868
ed08
1406
d658
fc16
0a0a
31f6
d7bc
02fa
ec10
0d07
252d
04f7
c204
fd17
0827
0afe
0321
0124
17f8
08d8
0c5a
f1e1
e967
0017
e8d4
0fe6
fd00
05fa
0ddc
13b7
e7d0
1f25
3bf9
18a6
00ea
ce18
4fe2
fd31
54e5
7dda
4e0d
dc35
b005
c0e9
34e8
eaf5
d2f0
44cb
ff10
e004
390e
de10
b60a
11f3
2ef1
821d
2efd
960c
30eb
3408
1021
4e01
83e8
db1c
fa26
0e1c
2503
ff32
f6ba
fd1c
7f2b
0000
0000
0000
0000
0000
0000
0000
0000
0000
0000
0000
0000
0000
0000
0000
0000
0000
0000
0000
0000
0000
0000
0000
0000
0000
0000
0000
0000
0000
0000
0000
0000
0000
0000
0000
0000
0000
0000
0000
0000
0000
0000
0000
0000
0000
0000
0000
0000
0000
0000
0000
0000
0000
0000
0000
0000
0000
0000
0000
0000
0000
0000
0000
0000
0000
0000
0000
0000
0000
0000
0000
0000
0000
0000
0000
0000
0000
0000
0000
0000
0000
0000
0000
0000
0000
0000
0000
0000
0000
0000
0000
0000
0000
0000
0000
0000
0000
0000
0000
0000
0000
0000
0000
0000
0000
0000
0000
0000
0000
0000
0000
0000
0000
0000
0000
0000
0000
0000
0000
0000
0000
0000
0000
0000
0000
0000
0000
0000
0000
0000
0000
0000
0000
0000
0000
0000
0000
0000
0000
0000
0000
0000
0000
0000
0000
0000
0000
0000
