eae4
02ef
eadd
e7d8
e9a2
03c3
fce7
08fa
f4ed
02f5
e225
f727
0442
0417
0aee
e002
061e
eb09
fee9
ebdb
f0f3
ff0e
02e0
facb
effb
ebfd
f919
ecee
0f49
041b
fb81
f19d
03d5
ef1b
fb0e
fa18
ebf8
fa05
f7d8
086a
f42d
feb0
0cdd
09da
fefc
fcdd
07bf
f8b7
0b46
023e
0ace
fef8
0d04
06f4
ffe5
01c0
f5f1
f13f
fd1a
fc37
01f5
eff6
fee7
012e
fa11
fe2b
0517
04e7
fff5
f60d
fd15
f0ed
f9d3
f8ee
fdee
efd4
eeda
f813
f704
09fa
0cf9
02f8
06db
f913
03cb
ff06
fddb
fec5
0320
050e
030c
f7e7
040e
f6fc
01ed
f2f8
07d5
f32c
fc28
fc30
f5fc
ec02
fdd7
f8ff
09f7
01d2
f6ee
f4f2
0503
02ef
eef8
ebeb
fad9
f506
031d
f8e7
eaf5
fafa
fdf9
f103
f0cd
04e5
f8fe
fa0c
f5f1
e116
f9d1
fff6
0901
fa25
fafe
10ff
0406
f8cc
00bf
04e2
fbd4
f8e6
082f
0404
f1e9
faf6
00ed
f4e3
fc16
03f9
eeec
f012
fb33
ee0b
f103
08f8
fd28
fbf2
fd22
f1eb
fcf5
010b
fafe
f9ee
02ed
fc18
0805
06fc
220e
f8ef
ea04
24f5
fcdd
e71e
21ec
0cf6
1721
ecfb
f32a
f511
ffd3
e3eb
ec09
f5eb
d5f1
e6ea
fa03
f4d7
e5ea
1514
f9eb
f500
1a04
f911
14e9
fffc
f2fa
f8ee
fdf2
fd16
08e5
e8fb
01ea
08cf
270c
f6f9
f7ed
111b
02fc
ee18
1f14
eede
06e2
fb1f
eef4
f0ef
f903
e7f5
e10e
f011
0423
f00d
e9e6
190b
faf8
e9bc
1c03
ecde
e7d3
d1d6
fedd
eff9
f2f7
0bf8
fae9
faf0
031d
f2d5
3a10
e6f8
fc05
222c
fdf5
fde8
2619
08f1
00fe
0000
0000
0000
0000
0000
0000
0000
0000
0000
0000
0000
0000
0000
