49
3a
2c
32
e5
29
6b
c2
1f
22
00
18
fc
16
28
0c
f7
32
d8
cb
f2
3b
f9
f2
13
f0
19
29
54
3f
5e
5f
75
18
2f
45
e1
cf
a7
11
56
ef
22
fd
c0
0a
d2
81
26
3e
80
0e
9c
db
1c
0c
20
05
1e
2f
46
fb
f2
f1
e7
c0
b2
a3
09
99
d7
aa
1d
47
36
14
08
f6
c0
b0
bf
db
ff
91
f6
07
b2
8b
21
d7
4f
0f
70
06
15
37
24
45
4d
06
e9
f2
ed
1a
d3
20
de
d1
ca
01
e0
15
fc
f3
80
ff
fa
4e
24
46
20
f6
03
a9
b8
cc
cb
f6
80
e7
01
e5
fa
04
d3
63
15
0a
08
d5
18
9a
b3
0b
f8
c5
c8
a2
e1
09
b8
ea
6f
e5
b6
3f
b6
d2
24
ae
fd
f3
00
00
00
00
00
00
00
00
00
00
00
00
00
00
00
00
00
00
00
00
00
00
00
00
00
00
00
00
00
00
00
00
00
00
00
00
00
00
00
00
00
00
00
00
00
00
00
00
00
00
00
00
00
00
00
00
00
00
00
00
00
00
00
00
00
00
00
00
00
00
00
00
00
00
00
00
00
00
00
00
00
00
00
00
00
00
00
00
00
00
00
00
00
00
