08c5
f8cd
f20e
acd2
e6e9
dd58
f5ae
0b00
0a49
fff8
1f13
cf09
fefc
f02c
ffe5
fd31
000e
0bbe
0404
f00b
a2ba
a6fe
12cd
d54c
d7ee
fcce
0044
03f5
07d5
b90e
c32c
e69c
e72c
e4fe
15d3
fb04
0399
11a9
3eea
0411
1bf8
de8e
8151
b043
0c0a
ed49
fd41
ee04
eaf3
fd0e
5439
010f
3bce
09c8
03b2
130f
720b
0104
0fce
e4dc
b756
b935
bce3
23bc
31ea
62df
ba3a
0d33
eac4
951c
1415
091b
15ef
10f4
2bf7
2fe7
0afb
1a25
1409
f84f
cf2b
fe16
150b
faf4
f723
f906
f2cb
36e3
27c2
34cb
15be
f5e7
10fa
23e9
0806
25fc
14ee
d524
0020
f49e
0c04
35e4
469c
4b14
4639
3ad6
ef20
f62c
0000
0000
0000
0000
0000
0000
0000
0000
0000
0000
0000
0000
0000
0000
0000
0000
0000
0000
0000
0000
0000
0000
0000
0000
0000
0000
0000
0000
0000
0000
0000
0000
0000
0000
0000
0000
0000
0000
0000
0000
0000
0000
0000
0000
0000
0000
0000
0000
0000
0000
0000
0000
0000
0000
0000
0000
0000
0000
0000
0000
0000
0000
0000
0000
0000
0000
0000
0000
0000
0000
0000
0000
0000
0000
0000
0000
0000
0000
0000
0000
0000
0000
0000
0000
0000
0000
0000
0000
0000
0000
0000
0000
0000
0000
0000
0000
0000
0000
0000
0000
0000
0000
0000
0000
0000
0000
0000
0000
0000
0000
0000
0000
0000
0000
0000
0000
0000
0000
0000
0000
0000
0000
0000
0000
0000
0000
0000
0000
0000
0000
0000
0000
0000
0000
0000
0000
0000
0000
0000
0000
0000
0000
0000
0000
0000
0000
0000
0000
