0c
fd
02
05
fb
08
15
22
11
e1
ed
f6
d7
fd
f2
dc
04
d1
22
20
33
22
f0
02
14
ec
2e
f1
f6
ed
17
0d
ea
06
0b
f1
04
15
e6
f6
e7
d1
2a
19
00
d8
de
c9
39
0f
21
36
44
06
13
39
3b
f3
11
df
ca
ad
91
00
14
e8
f0
d4
34
a4
c1
fe
d4
f3
ed
e0
ce
d4
fb
e5
c9
e9
0c
f0
e9
f9
f0
e5
24
38
b7
dd
f0
ca
0d
e8
db
00
d0
e2
1b
15
cc
fe
fb
ec
ee
09
00
00
00
00
00
00
00
00
00
00
00
00
00
00
00
00
00
00
00
00
00
00
00
00
00
00
00
00
00
00
00
00
00
00
00
00
00
00
00
00
00
00
00
00
00
00
00
00
00
00
00
00
00
00
00
00
00
00
00
00
00
00
00
00
00
00
00
00
00
00
00
00
00
00
00
00
00
00
00
00
00
00
00
00
00
00
00
00
00
00
00
00
00
00
00
00
00
00
00
00
00
00
00
00
00
00
00
00
00
00
00
00
00
00
00
00
00
00
00
00
00
00
00
00
00
00
00
00
00
00
00
00
00
00
00
00
00
00
00
00
00
00
00
00
00
00
00
00
