d911
1f0a
000c
0cfa
11fa
2207
091c
010e
1807
f302
1e0e
1405
0dff
e9fa
1bff
1504
1604
d6f1
180e
1717
f3fe
d8ee
17fa
fb10
cff4
09ff
0d0d
0111
f501
3efe
df09
f3f1
140a
060b
d003
f402
cf06
f8fb
f5f4
16fc
3a02
09fa
dde6
10fe
0915
2705
e709
fe03
f40b
f919
310e
0f00
ee0c
1f1a
00fe
21f4
1617
fcf8
00ff
08f8
0409
1e01
2cfa
150a
2908
f4f9
250a
ea03
e9ea
0a04
e9f5
02f1
53f3
0200
1b02
270d
e8ff
ee0c
6d13
16fd
f805
13fb
c601
eb01
1402
1000
f503
cf06
090a
d107
b9ff
e500
16ff
e100
fb01
0eff
01ff
fc00
01fe
e802
fefe
0501
0c05
fc08
09ff
04fc
f808
c700
eefd
fe01
fffe
bd02
f7ff
de00
aafc
f502
0e04
0f06
fa03
db03
f902
effd
d606
06fc
fc00
fd07
ed04
1601
0d09
f406
e804
ee04
f607
070f
f00b
0d02
e5fe
3dfd
f5fe
effe
3400
f9fa
ffff
64fa
df02
1cff
0502
0004
edfd
11f8
e503
0bf8
0e00
5dfe
2100
04f6
7f00
d900
f401
05fe
eaff
e3fc
1907
f4f4
09c8
d748
04f0
0e1f
e8f2
efe4
fde5
e5c5
eef8
f00e
0606
f0e7
dddc
d3e8
e725
dce3
fdf2
acef
f0de
f702
053d
08db
edd0
edea
e81a
00e6
f4fd
d005
f309
1ce7
f901
0edd
0cf8
02c0
c5d8
f307
f1b4
fd06
e0f4
fcd8
e0f9
0808
09e8
f5f4
edf8
f7fc
d9c1
1505
d2d3
0e01
06df
e9fe
f7db
e9fb
09bd
dbe1
1103
11fc
e7be
d7e2
db8e
05cc
ef24
e626
2408
f6bf
efe9
230e
1912
040a
03e1
f1db
fbfb
fa14
f74d
e513
d594
d1df
d1f3
0000
0000
0000
0000
0000
0000
0000
0000
0000
0000
0000
0000
0000
