fa23
3830
6c23
c9f7
c300
1562
f7e7
dde3
ee7f
d045
0d45
4815
abe8
a9ec
0f0b
21ea
f9da
dc35
e104
1810
040b
cd40
060c
fcf9
f10d
f6f8
c50b
1b0b
f201
e4fd
12f7
2b19
20f5
dd00
0cf8
0cfb
97d9
cf0f
c323
ebee
042c
ddef
5610
2234
18f7
d8ba
ea29
c614
11d7
f927
f0e0
14d4
581d
22f9
d6d8
04fd
1d47
f5e6
ef03
0a50
f5e3
f908
ec17
112e
17e3
2e01
fc1c
efd0
1017
eb0d
00eb
f9fe
e000
eff5
1519
f53e
1c3f
1524
4999
ff9f
fd93
ee27
f732
304c
041c
4c22
330e
35cf
05ec
f6f2
fd01
18e5
efc6
feff
fc0c
fd29
ff08
0428
0e28
000a
0900
d6ee
ee0c
e8e6
f4f7
ad72
0858
0b38
0000
0000
0000
0000
0000
0000
0000
0000
0000
0000
0000
0000
0000
0000
0000
0000
0000
0000
0000
0000
0000
0000
0000
0000
0000
0000
0000
0000
0000
0000
0000
0000
0000
0000
0000
0000
0000
0000
0000
0000
0000
0000
0000
0000
0000
0000
0000
0000
0000
0000
0000
0000
0000
0000
0000
0000
0000
0000
0000
0000
0000
0000
0000
0000
0000
0000
0000
0000
0000
0000
0000
0000
0000
0000
0000
0000
0000
0000
0000
0000
0000
0000
0000
0000
0000
0000
0000
0000
0000
0000
0000
0000
0000
0000
0000
0000
0000
0000
0000
0000
0000
0000
0000
0000
0000
0000
0000
0000
0000
0000
0000
0000
0000
0000
0000
0000
0000
0000
0000
0000
0000
0000
0000
0000
0000
0000
0000
0000
0000
0000
0000
0000
0000
0000
0000
0000
0000
0000
0000
0000
0000
0000
0000
0000
0000
0000
0000
0000
