14
54
0d
18
65
e4
d7
31
40
08
dc
ed
f7
b0
f4
f9
f3
d5
23
12
4f
f3
3c
ef
02
44
1e
09
03
13
fe
f5
f1
d5
ea
12
fb
e5
f0
d1
e6
51
5e
55
11
e8
36
15
08
40
cb
d5
dd
15
1e
fb
18
01
cc
32
0a
0a
36
29
f4
ed
df
dd
07
30
54
56
3f
e3
b7
41
ed
ce
d9
e1
fc
b4
f9
1c
e2
28
05
1d
1d
f8
4b
f2
ca
6e
01
a7
07
c5
ee
f9
1d
d0
18
ff
e6
3a
d7
ed
00
00
00
00
00
00
00
00
00
00
00
00
00
00
00
00
00
00
00
00
00
00
00
00
00
00
00
00
00
00
00
00
00
00
00
00
00
00
00
00
00
00
00
00
00
00
00
00
00
00
00
00
00
00
00
00
00
00
00
00
00
00
00
00
00
00
00
00
00
00
00
00
00
00
00
00
00
00
00
00
00
00
00
00
00
00
00
00
00
00
00
00
00
00
00
00
00
00
00
00
00
00
00
00
00
00
00
00
00
00
00
00
00
00
00
00
00
00
00
00
00
00
00
00
00
00
00
00
00
00
00
00
00
00
00
00
00
00
00
00
00
00
00
00
00
00
00
00
