28
67
ac
02
1c
3e
7c
32
03
fa
1a
f3
ec
6c
11
e8
de
51
c6
eb
15
e8
0c
7f
69
ca
b3
28
c5
25
29
be
be
e0
11
22
e7
80
f5
3d
ea
89
14
0e
15
b5
d6
30
42
4a
0e
03
fb
bc
eb
c2
3a
6b
09
ef
f3
de
08
de
cc
dd
d1
7f
3d
b4
d2
ef
d4
c0
cd
08
31
39
2e
3d
56
53
b1
02
00
fe
2e
f5
65
c4
1a
0c
d6
f1
54
30
d7
fa
1a
7f
de
fd
13
37
f4
0d
0e
dd
3c
c3
43
14
41
e9
c4
2c
b3
4d
18
1e
00
00
00
00
00
00
00
00
00
00
00
00
00
00
00
00
00
00
00
00
00
00
00
00
00
00
00
00
00
00
00
00
00
00
00
00
00
00
00
00
00
00
00
00
00
00
00
00
00
00
00
00
00
00
00
00
00
00
00
00
00
00
00
00
00
00
00
00
00
00
00
00
00
00
00
00
00
00
00
00
00
00
00
00
00
00
00
00
00
00
00
00
00
00
00
00
00
00
00
00
00
00
00
00
00
00
00
00
00
00
00
00
00
00
00
00
00
00
00
00
00
00
00
00
00
00
00
00
00
00
00
00
00
00
00
00
