ebfef5f6
fb0308fe
10fe19f3
dc0e0911
c5060e04
f1f821f7
09191123
02f80301
df0314fd
0004f404
f2ff0bfa
f902fa00
0e00f9fc
16fffffd
0bfc0102
cf21dd0b
f20ef0f5
0b0cf3f1
33fc0a1b
070409fb
1200fc01
ecfa1806
d40d080b
dbf61115
24030c0a
ff04fa0b
f1f20315
24fce407
1301fc09
fa03fefd
0509f2fc
ecf90d06
e6f8feef
1120f914
eef001fa
f5f805f8
04f4fb02
fffaf4fa
c3d0f902
f90411ee
05effff9
f7fc0005
0b0412fb
f9fa0eff
fe02150e
0914f40a
00f6f5f5
390a04ff
e7fd0b0b
16f40409
fcf90df9
fefbf51d
f9ededfb
e0e7ebfc
bcf80a02
fb13ff05
0e05ea03
dd0e0804
ee000905
f2fc09f7
1e010ffd
d4f00604
d6fd1905
fd06e9ed
f6ffed02
eaf5f1f6
b7fcf1f4
cd08f5f2
e3ffed0f
e9f2f80b
fe0bffee
0105ed12
1102030b
eef7f9f0
dc04ca08
f3f7020d
e803edf4
c5150ceb
0d00e9ee
f3f6e808
f9010df5
ffecfa0f
1d00f1f2
daf510f5
fdf2f8f8
fa00ecef
0bf4f8f4
eaf3fc10
d5fc0d11
0a07eef2
14187f13
0612e9fe
0116e5ff
f114fae0
e403e2e7
e8e301f0
fe40f1c6
dc11f9f2
f4e5f1f5
e1e5ebe5
fb01f5ff
0610fd26
f5eef4f3
0aff03ef
f311fc0e
10e81006
fe010fff
110c08f5
9cf1dae0
fefcebea
11ee07ce
fbf6fef2
fc0f17f7
d2fb02f9
e903f907
f3fc0afd
f8f9f30b
ee02fc0e
f90a0910
d82c0b1f
de01f003
e1f3fafd
df2d241b
0ffb18e4
34ff2adb
2742f6c8
fd01f022
02f3f402
fbf315f4
df07e6ee
dff4f9ed
e9f707e7
2a09d3e0
16f102fc
dded1ce6
0f00f1f5
0910f2f1
ff1ae3e3
24eadfe3
e5fa03ea
e5de03f7
eaeff9f5
0cf9ed07
f1fcf0db
ecf40ef7
eee9f3fa
06eeec0b
f1ffe8ef
fe08f118
04edfce5
0edacffc
02f604f4
feff0f01
040211f7
fa01fff1
16f3fd00
0a0efe01
fdf2fd04
0401fff6
de051edb
eefcd5e5
0707fbfe
dfd21ff9
cedad40c
dedaedf3
eb0406fb
fe13071c
fd0218f5
f9e2fc10
f3f1ec05
3be01ef9
09f208ec
fefffc10
ecfbf8fc
170af4f3
0411fdfb
f4f60f03
0bfd03de
ea02000e
fbee01f7
f5fcf9ed
fb00eede
e9f4f3fd
f2eee81f
f3f90801
f4f5fbfa
0af5030c
fbecff12
e7f405fb
1be300ef
09eafefb
ccef0c03
10051c15
01ff1f10
f0ddf5e9
ef310f02
07fdefff
09c4fbfb
e2fb0ef1
dcf7f7db
b6ffeefa
f816fbfd
0d1506fc
ffd714fe
00f40b0f
f4f4f507
06f21bf7
e30203ea
e5f904f6
f2ef03f2
0d02fbe0
f3edec11
1400fdd3
fc0bf2dc
dcf8f213
d5f1dcdd
