e40df5f7
ea19eee9
d4bc01de
f8f8ffe6
f1f213f4
941a10ed
490decfe
e8e3f103
e1f605f4
f9f4e7d7
f602f9f6
b404e7d3
e6f8d8e8
d6f2f803
fd1beced
eff7e5c8
dbf0e402
17dbf6ed
f2f315e3
f50904f4
f9ee0f01
f0ef11f8
13040608
f2170b08
0cfeb6f6
04ecf80b
1b0208f5
081316f6
ff06fcff
d6f7f3f1
1e0a0305
fd0bdf09
e503deec
1705d403
1401c8f8
191dacec
c302f9ec
cfdee817
de57d5f0
bcf7f904
09eef2f2
3f080ded
1bfce8ee
06edf807
240530d9
d1f2dade
03d8feef
d72ce3fe
f606faf8
d5f4f8fd
0bfff1f8
102e01dc
0301f709
e6f5f2f3
151d2efe
0f0a2329
eff72cfa
db120d03
ff1ef80a
03fee003
0dfadc04
ee15e626
021fdde9
df05f4d5
d30904ea
f30d13f4
ba171df7
ed02e70f
050ffded
c343d9d8
cffeefe6
130bfdf8
06f10bfa
17e8f80d
12c73f28
f60300fb
fd16e20a
22fd2531
ec5af5ee
eb09eaef
f72b1340
2af1ff01
10020cf9
0411fffb
0cfbfffb
0ce9f5ec
f4f9f1ec
e5f3efdd
f2ecfeee
f7f8dff8
0806332a
f9fd02ee
eefc01cf
05fe0624
12fff300
fe09fae5
f505f22a
0807eaff
fbeef6eb
fdfcfcf7
140be2ea
26f8df02
f21316fe
f709def2
140d0afc
f502b514
f5f416ec
fde27fe8
1efc15ec
1306fd11
08f702dd
ed04f3f1
040bfde2
f9fd03dc
ec43e805
f100e803
f1f616cc
d2fcecf3
18e80204
d710f101
f8e100fb
f90c1502
04fcf8ed
db12d8ec
e5fcf20e
e2f2fefd
330c643b
ffee0b08
19eef702
01fa1215
100401f6
06f5ec15
021b0719
f61a1817
11fd08e9
ffffffed
1ae40604
1bd8fe22
16f6edf0
020edbe8
fe0f0105
07f906f8
0219f2e4
f516f3fd
fbdaf60d
ea172af7
ee1001bd
fbf4fdd0
ec0e10f7
f50fe106
e109fff0
e70bf507
fffad60f
02e6cae0
eaebebdd
fae2ecf1
00fffce4
00fff014
28f8f2d9
ed03c7f5
d2f002fd
d4e3e0f3
f507f313
f7fee41c
040d5206
f0fddff7
05f5d8f3
25152b04
06f500ee
ef0bf6e8
0d03fc0a
08eec8e2
fe29f5cb
edf7e6f7
11dace03
070de912
ea07ed23
f819bdbe
f00df259
fc00d912
cffbd426
05dff7f0
e80eebd5
dbedc2d4
090c0fea
44fcd507
d0dfc5cd
e60c0804
cdedcc16
e4f9cbeb
edf5fedd
f50b0af0
ede7f5fe
fd11f305
d8f2edd7
19f5efeb
eaeff6e3
09f2d30b
f602001f
ef010b07
ec372906
f5f004ff
ec0af9ed
fc010ad6
27e600f1
0e11fd0f
0b0cfe11
dfeebb0b
08ffdfde
f2f4e0da
e0f2f3e7
03f8eae0
edf8e0fc
ed1cb5ec
dde5f3ea
f4dfece8
