f9f3
070b
fffd
f501
0bf3
0f0c
0cf6
0010
f212
0616
f41e
f108
f003
dfe9
01f6
f21e
ff18
e9f5
d702
f5ed
0004
f3ed
13f3
0e0b
1a0a
dc1c
0908
15f4
0cfb
0306
2afa
04e9
12fc
fbf1
f0f2
00ed
1938
f02a
d80b
0496
fe9e
20c6
e10c
ef4f
0015
0f1f
f94f
f9d0
05e2
1105
1035
2993
db1c
fdf0
0aee
15d3
1619
fcf4
db12
fa59
dd37
fd16
d254
effc
1cc1
061f
0009
fd03
08f2
0256
efb8
f4dd
110b
0330
fe0e
f11f
f03c
14f9
c811
ef81
dcfd
f6d8
0816
f016
0e09
0649
d832
0f03
c6c1
d712
001f
1a9b
1206
1217
18f8
3302
fc0f
05dc
0808
f215
e222
00f8
d924
33d5
0b00
f201
02e4
fc16
0000
0000
0000
0000
0000
0000
0000
0000
0000
0000
0000
0000
0000
0000
0000
0000
0000
0000
0000
0000
0000
0000
0000
0000
0000
0000
0000
0000
0000
0000
0000
0000
0000
0000
0000
0000
0000
0000
0000
0000
0000
0000
0000
0000
0000
0000
0000
0000
0000
0000
0000
0000
0000
0000
0000
0000
0000
0000
0000
0000
0000
0000
0000
0000
0000
0000
0000
0000
0000
0000
0000
0000
0000
0000
0000
0000
0000
0000
0000
0000
0000
0000
0000
0000
0000
0000
0000
0000
0000
0000
0000
0000
0000
0000
0000
0000
0000
0000
0000
0000
0000
0000
0000
0000
0000
0000
0000
0000
0000
0000
0000
0000
0000
0000
0000
0000
0000
0000
0000
0000
0000
0000
0000
0000
0000
0000
0000
0000
0000
0000
0000
0000
0000
0000
0000
0000
0000
0000
0000
0000
0000
0000
0000
0000
0000
0000
0000
0000
