0cd7
ffe7
d3f2
23f5
cb0f
e4f8
4d05
ec15
e306
03f5
060b
0df9
f3d8
f508
f905
13e4
c9e3
def4
faf4
f31b
14e4
f804
f614
3be7
021b
ebec
34e2
f6ea
e311
e909
e2dd
14ed
05fc
c9f0
1f18
dcfe
1913
dfe4
f805
46fc
cef6
ff09
ce03
eff9
f707
28cf
fef9
bc17
19ec
1708
bd04
00ea
fc08
ebde
ef00
f401
0be1
1815
0cf8
e8ec
3001
cf08
1bee
e6ee
12dd
fdfc
c7e3
1e00
fefc
c5f0
0c03
e000
1624
0323
13f4
070f
f8ed
f9ff
fd08
e80e
20fd
e4ce
d5d7
e814
0cfb
292a
eef1
e0fa
0415
e91e
fcfd
f2da
f224
fbfd
fb0a
e7e5
e1d3
03d7
edff
0104
08db
f9e7
320a
fcee
eaf1
ead2
15de
3611
d8e7
05e5
031a
0b15
ea18
f6e4
e9f1
ed14
0ac7
211b
0bf9
dae1
0221
1dfe
fee6
0e2c
d31e
200b
ff17
ebe5
fce4
f4e6
f7ec
10e9
f7f5
08d5
35f4
1713
eecd
efdc
20fe
224b
121e
f713
f700
1310
0409
fbd9
1004
d6c7
f325
e9d4
dd28
dfe0
f207
dd0f
12db
181c
02f2
fe05
dc05
000c
0c0a
f9f0
bf06
ec0a
0b17
0512
f605
0801
07ef
2317
1310
f403
09fb
20fc
fcdb
10f3
c8fb
e001
feed
ebfd
e9db
ddfc
ffd8
150c
eae7
ecfc
ee05
f5f2
f8ce
d8f5
02d5
eefa
e6f0
0c06
e912
d9e1
eee9
ef06
04eb
ff16
01db
1904
0402
d7f7
e803
f11c
36f5
e4e8
1ff5
02f7
09ed
f8ff
e1f4
dfe4
eedf
16d9
d70c
e120
d903
2a0e
2016
c017
15cf
2b1f
2a05
e00b
e810
05e3
1307
fd0b
dbdc
07f4
f4ff
ffef
d0fc
d535
43f2
ea0f
13e8
df18
3af2
42f6
dd10
0000
0000
0000
0000
0000
0000
0000
0000
0000
0000
0000
0000
0000
