aa
38
df
d9
15
21
ec
f2
02
32
2d
de
f8
28
d1
dd
e0
09
da
1e
36
07
03
0e
f7
c1
fd
bb
f1
1f
01
f3
ea
0c
f8
2a
e9
ee
29
de
f3
0e
3a
d2
0b
f7
fa
d9
be
12
12
a6
26
13
c6
cd
c2
25
d5
67
23
e2
ee
6b
09
da
fc
35
f8
de
e3
45
eb
e3
f0
e8
d2
f7
0b
12
ff
08
1c
e5
f4
f5
f5
fb
fc
f2
f5
02
f4
ee
13
fa
10
02
f9
11
ff
0c
ed
f8
f8
ec
e8
02
00
00
00
00
00
00
00
00
00
00
00
00
00
00
00
00
00
00
00
00
00
00
00
00
00
00
00
00
00
00
00
00
00
00
00
00
00
00
00
00
00
00
00
00
00
00
00
00
00
00
00
00
00
00
00
00
00
00
00
00
00
00
00
00
00
00
00
00
00
00
00
00
00
00
00
00
00
00
00
00
00
00
00
00
00
00
00
00
00
00
00
00
00
00
00
00
00
00
00
00
00
00
00
00
00
00
00
00
00
00
00
00
00
00
00
00
00
00
00
00
00
00
00
00
00
00
00
00
00
00
00
00
00
00
00
00
00
00
00
00
00
00
00
00
00
00
00
00
