f5f7
eee9
01de
ffe6
13f4
10ed
ecfe
f103
05f4
e7d7
f9f6
e7d3
d8e8
f803
eced
e5c8
e402
f6ed
15e3
04f4
0f01
11f8
0608
0b08
b6f6
f80b
08f5
16f6
fcff
f3f1
0305
df09
deec
d403
c8f8
acec
f9ec
e817
d5f0
f904
f2f2
0ded
e8ee
f807
30d9
dade
feef
e3fe
faf8
f8fd
f1f8
01dc
f709
f2f3
2efe
2329
2cfa
0d03
f80a
e003
dc04
e626
dde9
f4d5
04ea
13f4
1df7
e70f
fded
d9d8
efe6
fdf8
0bfa
f80d
3f28
00fb
e20a
2531
f5ee
eaef
1340
ff01
0cf9
fffb
fffb
f5ec
f1ec
efdd
feee
dff8
332a
02ee
01cf
0624
f300
fae5
f22a
eaff
f6eb
fcf7
e2ea
df02
16fe
def2
0afc
b514
16ec
7fe8
15ec
fd11
02dd
f3f1
fde2
03dc
e805
e803
16cc
ecf3
0204
f101
00fb
1502
f8ed
d8ec
f20e
fefd
643b
0b08
f702
1215
01f6
ec15
0719
1817
08e9
ffed
0604
fe22
edf0
dbe8
0105
06f8
f2e4
f3fd
f60d
2af7
01bd
fdd0
10f7
e106
fff0
f507
d60f
cae0
ebdd
ecf1
fce4
f014
f2d9
c7f5
02fd
e0f3
f313
e41c
5206
dff7
d8f3
2b04
00ee
f6e8
fc0a
c8e2
f5cb
e6f7
ce03
e912
ed23
bdbe
f259
d912
d426
f7f0
ebd5
c2d4
0fea
d507
c5cd
0804
cc16
cbeb
fedd
0af0
f5fe
f305
edd7
efeb
f6e3
d30b
001f
0b07
2906
04ff
f9ed
0ad6
00f1
fd0f
fe11
bb0b
dfde
e0da
f3e7
eae0
e0fc
b5ec
f3ea
ece8
0000
0000
0000
0000
0000
0000
0000
0000
0000
0000
0000
0000
0000
0000
0000
0000
0000
0000
0000
0000
0000
0000
0000
0000
0000
0000
0000
0000
0000
0000
0000
0000
0000
0000
0000
0000
0000
0000
0000
0000
