e40d
ea19
d4bc
f8f8
f1f2
941a
490d
e8e3
e1f6
f9f4
f602
b404
e6f8
d6f2
fd1b
eff7
dbf0
17db
f2f3
f509
f9ee
f0ef
1304
f217
0cfe
04ec
1b02
0813
ff06
d6f7
1e0a
fd0b
e503
1705
1401
191d
c302
cfde
de57
bcf7
09ee
3f08
1bfc
06ed
2405
d1f2
03d8
d72c
f606
d5f4
0bff
102e
0301
e6f5
151d
0f0a
eff7
db12
ff1e
03fe
0dfa
ee15
021f
df05
d309
f30d
ba17
ed02
050f
c343
cffe
130b
06f1
17e8
12c7
f603
fd16
22fd
ec5a
eb09
f72b
2af1
1002
0411
0cfb
0ce9
f4f9
e5f3
f2ec
f7f8
0806
f9fd
eefc
05fe
12ff
fe09
f505
0807
fbee
fdfc
140b
26f8
f213
f709
140d
f502
f5f4
fde2
1efc
1306
08f7
ed04
040b
f9fd
ec43
f100
f1f6
d2fc
18e8
d710
f8e1
f90c
04fc
db12
e5fc
e2f2
330c
ffee
19ee
01fa
1004
06f5
021b
f61a
11fd
ffff
1ae4
1bd8
16f6
020e
fe0f
07f9
0219
f516
fbda
ea17
ee10
fbf4
ec0e
f50f
e109
e70b
fffa
02e6
eaeb
fae2
00ff
00ff
28f8
ed03
d2f0
d4e3
f507
f7fe
040d
f0fd
05f5
2515
06f5
ef0b
0d03
08ee
fe29
edf7
11da
070d
ea07
f819
f00d
fc00
cffb
05df
e80e
dbed
090c
44fc
d0df
e60c
cded
e4f9
edf5
f50b
ede7
fd11
d8f2
19f5
eaef
09f2
f602
ef01
ec37
f5f0
ec0a
fc01
27e6
0e11
0b0c
dfee
08ff
f2f4
e0f2
03f8
edf8
ed1c
dde5
f4df
0000
0000
0000
0000
0000
0000
0000
0000
0000
0000
0000
0000
0000
0000
0000
0000
0000
0000
0000
0000
0000
0000
0000
0000
0000
0000
0000
0000
0000
0000
0000
0000
0000
0000
0000
0000
0000
0000
0000
0000
