6b5f
25e3
3bdd
07fd
0ec7
3403
cf16
caf3
faec
0d0c
02fd
dcf3
d8f3
35f8
e2f0
0e1f
0001
f7f7
3e04
e6d7
15f4
e0ff
20f5
071d
e724
c8fa
0ae1
b7ee
0b1f
e60f
2df0
161b
f7f9
1408
1413
0a0b
d0fb
edeb
fa02
0a0d
e4cf
f9ea
fcf6
0eca
f9ef
cde5
f3ef
2102
c9cb
cf06
0412
0d2f
edfb
7c1a
e909
f7d1
d7ec
1b16
fa04
df0a
2f7f
461b
ce0d
e0f4
0a17
0eff
d5ac
0afd
2303
beaa
ef06
4bff
1bad
1e00
2814
0dfc
f2fe
edfe
eefd
e3fb
dffe
0500
1205
12f3
fe1b
1921
0fec
f713
f0da
ecec
fdff
03e8
fdee
0a00
edd4
d20e
e808
013b
0906
fb0e
01fb
41ff
f309
0c03
111e
1065
1ae3
fed8
e30a
d02a
d6eb
2608
e3e3
1aff
130a
050b
23c8
ed11
fd17
ebfb
1e2c
010a
060b
1715
e1f6
be1c
3e15
0bed
0e04
1920
d6ee
350e
3637
f8f9
2cf0
14e9
1f0d
fd1a
cdd9
3408
ed27
dcdb
ea1c
fc06
