020efd04
0103f20b
dea416df
001e06f7
f4fcfaf6
871c0fe4
1d270c0e
0812eaff
bf060eff
ff00a8e8
fdffc8f0
81e5e7d6
da06aae8
c8f6f509
1307ebf3
c9e4ddcc
f4fdcefd
21cf0bec
ef041b0c
f402e4f5
24e90dff
f8d81a09
070e2e16
f91d2015
e72799f6
2700f40e
fdf616f4
02eff100
c730fbe4
8f1715ea
12f1e10a
0cffe90a
b233f3e9
20fccf04
09f4c0ff
360d90f4
a00ddaf1
9adfd326
bf1d0b1d
86edd113
41d2fff3
45cd03e3
4206fde6
fc03db05
00f71cf3
b7cad1e2
12ec15f5
bd20e2f6
f80004fc
b7e5fffe
2004f5ff
0318fbd7
1900f307
d0e8ebf2
230d33fc
1cff1f2f
ec0c3f00
b40cd803
fa21e209
0df1e2fe
12e9ec04
061bec2b
1313d5e6
dfeb16ed
c945ecef
e61bfdf1
ad070aff
c1f4f421
f23806e4
c618c5f2
f60cee02
490eecfa
fdf41cef
faf70404
01d11961
fcfd0ad8
db091802
0a263445
f92ff5e1
f9e800ec
0107f71b
eee307f2
dceb0cf3
f613faee
080003fc
07b5ffed
eb02f1dc
ebe7eece
f8ef04e5
ffe5d1f4
0805221d
0efb04d9
effe02b3
0cfd1751
fbf0f6ef
ec17f012
f30d0320
090ee2fe
fbfffaf1
f9ed09e3
f61ae00c
f6ff0cba
f90f0ff8
fdf8e306
0e1b1816
fc1ef10b
09f21cdc
050e3cff
05e20e00
f90513d3
00e6e41e
0d0ae1f0
063313b3
f409fcbf
0034ee09
fdf7f3cb
fce50ee9
e5fcf0c2
11c514f2
eb05f1f7
ffdbeceb
e119240d
fdec06fc
eb1ddff2
f202e828
f7f0f609
1a144235
1dd60b13
14f70831
20e93206
1512f3e9
0cfef43c
04110d1d
f41b1822
150605d9
e8f800cf
f5c625e6
fdcb112c
0e1008ed
042fe4fd
fd081a00
00e605c8
0719f3cf
f31b24dd
08b7f3eb
dd11170b
f91cf5c2
cff11fdd
e00423f3
0e260417
df00db03
fc08de08
15f8c9fe
02c5aacf
dbd0cec9
fec9f4de
040100e8
1015e732
46fb01ca
d8fea6f4
c7edfefb
b4cce2e0
0d11fc10
f3fddd29
0bf2090c
e505cfea
f3e0c6f6
3f1e1f01
17f80700
f220fced
24fb2200
fce0d0dd
d748d3c4
e6fad600
1aa2da0e
1419cae6
fe1ce52b
f71de9c6
d730f74e
1ffbd10b
d6fdfd0c
eea8feba
eafeaac2
e4dbbbbe
0f0e42dd
0a01c6eb
d9d4cbc7
fee921d7
c1bdba0e
d4eeb0dd
e2e90bd3
f0170ded
e2caef02
fb25fa19
c1edebcd
2ceaefe0
e3d8fadf
21f6ca1d
f8050c2d
e7062205
e3500316
fae211f9
d50e06d9
f8fa2ac5
49cf0bf6
15251918
051217fc
d7e6a216
1bf4ede7
e8fcdeec
e6cef101
fe0506db
ebecd70f
010fa9da
e4dff2e2
f8d0dcf2
