2af9
ee15
fef0
e010
ede2
29da
09ed
f81b
1312
263f
01d9
e6f2
fce9
f526
23cf
f3f1
fc2e
ddf8
fd08
bb08
ff81
f21d
3c11
eb18
fb17
f4da
0616
ff2f
e6a7
fa04
e9ed
f44b
1cc4
e2fc
e908
271e
01fd
f206
ff02
11f1
f721
0e09
f5f8
f902
fbfa
0a08
11df
0712
08ee
fc37
fb11
13d0
031f
f515
0cf7
f8e2
ff16
04f3
040b
0224
fe19
0217
09e5
1bea
f2e5
00f8
002d
0bfa
fc07
111c
00fb
1105
0ce5
00f0
0ef3
e3fd
0907
090e
f2e3
f71d
0efe
f8e6
ef18
f307
e3ef
0ce0
f402
f2fa
fe18
fa08
02fc
06fe
f6ff
f6e6
001e
f5f9
0501
fcf6
09f4
f9da
fd0d
0203
f409
05fb
09fd
fff9
fd11
070e
0103
f0f7
e202
fd09
22fd
f9fd
fcfb
03db
0efc
fff2
0505
df00
0708
f202
f2fc
2705
fae4
0af9
f60c
0303
0b05
0708
f9f5
f207
0308
0cf3
dbf8
eafb
e502
26fa
0d09
f6ff
d901
0d05
0ef5
0806
