eefc
ef03
dbfc
05fa
1507
eb00
fbfc
0d03
0cfb
0205
ed06
e605
f7ff
1606
fcff
feff
0c0c
0109
e6fc
ff02
e9fe
dc03
22ff
f202
f7ff
1706
f300
06f8
1012
ff09
0cfd
1311
07ff
fafe
f513
031d
03fe
f704
0303
ed00
fb02
eafc
f6fc
e300
f9fa
11fc
0500
fcfe
0cff
0002
0602
16fc
f501
0500
f0f1
fd02
fcfc
fefd
1005
f7f8
f8ff
1e01
0e00
f7fc
03fd
f40f
fe04
2afa
070c
0e02
1d05
f015
0902
0df5
00fc
fd02
f301
ff05
04ff
02ff
f1f7
3208
fef9
eeff
d2f8
1efb
e3f4
dbfc
1606
07fa
08ec
e3fe
ceef
eced
d204
dd00
09ff
b5ef
0e0f
f8fb
be0f
eaf7
c816
d6fe
1f09
db06
04ef
0908
f4f3
dcfa
0402
dfe7
20ee
f5ef
00f9
19f0
d4ee
ec07
e904
ebe9
f210
d807
2d14
e911
1214
4afb
2eee
52f7
f4f6
e10d
0208
dafb
14f2
f20b
eaf4
5711
4b16
020c
300c
c70f
00fe
fe08
d510
0b12
e4e8
fb0c
cc08
1f03
fdf2
f30e
01fd
e1f6
f7ee
2c0b
170a
0607
dffe
4604
c6e2
2006
d2fd
f30a
a6fe
a4f7
e7f9
3eff
0eda
f509
e74e
2e08
f311
dc1b
fcd7
dc0d
0701
c324
10b1
efb0
c202
06ef
a0d3
e9dc
07aa
f2c5
1bf7
8105
f40a
e1fd
ec08
0cca
b6c6
0dfe
02ef
1bdc
c7cf
c62e
1c1f
f212
d8cf
c90a
fff6
2ece
3b17
b514
d11d
2f12
200c
e5fa
e231
e31e
d8f8
0dd7
04fa
e7d1
f2ef
0af4
b5a2
e0e7
c4fc
11f6
3407
f70a
14e5
19e8
3b34
150b
f800
0315
fdf5
cff3
d701
d9c6
0edc
f3f3
fb01
32f5
f607
2e02
dff9
f0ee
41fd
eb15
bdff
0000
0000
0000
0000
0000
0000
0000
0000
0000
0000
0000
0000
0000
