2f03
ef0b
f7ed
c306
dbf1
31f0
00f6
f813
1e09
2728
0cee
d8eb
e8f4
e919
28e4
e7f8
031a
de02
fe16
ab08
e581
fd19
3b06
0801
ee07
ecf0
46fe
142d
e3d3
eaf1
edfa
ea29
3fe5
d7fb
e10c
380e
1efe
f711
fefb
22f1
e639
0e25
f1e9
fe1a
fdf6
29fe
17d8
080e
10f2
f048
f90c
16b5
fb18
f40d
22e4
f405
fe06
01fc
050b
0034
f93a
010c
03f9
43dd
ecf1
08fd
0137
12ff
0005
1e06
f218
0b06
04da
fafe
0af3
e3e8
0213
0b0c
edd1
f526
1805
d5b6
f228
e9f9
d2c7
09e8
f6fd
ebeb
042b
031a
e90e
f60b
f427
0bf3
0512
f9eb
fd0e
fde5
09f6
dce7
f314
ff12
f301
05e8
0bec
f5f1
f910
070b
0602
ebf4
ca01
fc18
2e03
f2ee
10f7
01cc
0ee7
efe8
0206
c7fd
080e
ea08
f709
5409
fad7
14f6
e802
0502
0f09
fe0a
01f0
f1ff
fb26
1afb
cde0
dbf9
e302
20f9
0e09
eeff
b500
1b05
13e1
0dfa
0000
0000
0000
0000
0000
0000
0000
0000
0000
0000
0000
0000
0000
0000
0000
0000
0000
0000
0000
0000
0000
0000
0000
0000
0000
0000
0000
0000
0000
0000
0000
0000
0000
0000
0000
0000
0000
0000
0000
0000
0000
0000
0000
0000
0000
0000
0000
0000
0000
0000
0000
0000
0000
0000
0000
0000
0000
0000
0000
0000
0000
0000
0000
0000
0000
0000
0000
0000
0000
0000
0000
0000
0000
0000
0000
0000
0000
0000
0000
0000
0000
0000
0000
0000
0000
0000
0000
0000
0000
0000
0000
0000
0000
0000
0000
0000
0000
0000
0000
0000
0000
0000
0000
0000
0000
0000
0000
0000
0000
0000
0000
0000
